<pad>	0
</s>	0
<unk>	0
▁(	-0
▁)	-1
▁.	-2
ar	-3
et	-4
▁v	-5
in	-6
▁;	-7
▁t	-8
▁var	-9
st	-10
er	-11
on	-12
▁,	-13
_1	-14
at	-15
pe	-16
▁m	-17
▁{	-18
▁}	-19
re	-20
od	-21
▁=	-22
▁c	-23
ype	-24
▁i	-25
▁n	-26
ing	-27
al	-28
en	-29
▁st	-30
▁type	-31
eth	-32
ethod	-33
▁method	-34
ring	-35
ion	-36
_2	-37
▁f	-38
▁"	-39
le	-40
or	-41
▁string	-42
▁s	-43
▁g	-44
▁p	-45
an	-46
ur	-47
ex	-48
▁get	-49
ro	-50
ce	-51
li	-52
se	-53
ul	-54
▁th	-55
▁if	-56
_3	-57
▁r	-58
▁in	-59
am	-60
ent	-61
ct	-62
▁a	-63
ew	-64
it	-65
ut	-66
id	-67
▁<	-68
ue	-69
▁b	-70
ss	-71
▁>	-72
▁ret	-73
urn	-74
▁re	-75
▁new	-76
▁return	-77
_4	-78
▁o	-79
▁d	-80
▁e	-81
▁""	-82
ull	-83
ub	-84
▁}"	-85
ed	-86
pt	-87
▁+	-88
▁null	-89
ch	-90
_5	-91
▁l	-92
ate	-93
ame	-94
lic	-95
""	-96
ation	-97
ublic	-98
la	-99
▁int	-100
_6	-101
ri	-102
is	-103
il	-104
▁fin	-105
ext	-106
un	-107
ption	-108
ont	-109
es	-110
▁final	-111
fi	-112
alue	-113
ad	-114
row	-115
▁w	-116
el	-117
ot	-118
ag	-119
▁!	-120
ect	-121
_7	-122
om	-123
▁throw	-124
lo	-125
▁[	-126
▁/	-127
▁]	-128
ab	-129
ver	-130
▁tr	-131
▁:	-132
ception	-133
▁to	-134
ap	-135
ment	-136
ol	-137
▁0	-138
▁==	-139
▁this	-140
list	-141
exception	-142
ic	-143
▁res	-144
▁for	-145
ec	-146
per	-147
name	-148
ult	-149
_8	-150
▁h	-151
lass	-152
em	-153
as	-154
▁the	-155
im	-156
ke	-157
▁//	-158
public	-159
qu	-160
▁set	-161
and	-162
▁ad	-163
oid	-164
▁!=	-165
ter	-166
iz	-167
able	-168
▁el	-169
▁void	-170
que	-171
th	-172
▁else	-173
ode	-174
▁cont	-175
_9	-176
key	-177
▁add	-178
ject	-179
▁value	-180
up	-181
▁public	-182
▁j	-183
ra	-184
quest	-185
▁pro	-186
atch	-187
▁fi	-188
ser	-189
ck	-190
▁is	-191
ase	-192
▁1	-193
all	-194
pro	-195
um	-196
res	-197
▁lo	-198
▁ch	-199
▁ap	-200
ann	-201
age	-202
_10	-203
bject	-204
der	-205
pen	-206
con	-207
par	-208
▁con	-209
▁-	-210
oo	-211
▁par	-212
▁class	-213
stan	-214
string	-215
type	-216
value	-217
arg	-218
pon	-219
ction	-220
our	-221
fa	-222
▁stat	-223
▁ex	-224
eng	-225
ath	-226
▁&	-227
ff	-228
▁list	-229
▁name	-230
rid	-231
bu	-232
int	-233
pend	-234
_11	-235
▁com	-236
ig	-237
ize	-238
annot	-239
▁throws	-240
cont	-241
ess	-242
oun	-243
▁de	-244
▁over	-245
▁bu	-246
ength	-247
pri	-248
ata	-249
po	-250
vi	-251
ource	-252
lean	-253
vate	-254
put	-255
ride	-256
▁result	-257
stance	-258
sh	-259
yt	-260
▁override	-261
▁try	-262
▁?	-263
oolean	-264
▁"@	-265
ers	-266
end	-267
▁&&	-268
set	-269
annotation	-270
fig	-271
▁static	-272
eld	-273
rit	-274
▁append	-275
de	-276
▁catch	-277
▁key	-278
private	-279
_12	-280
dex	-281
▁boolean	-282
ve	-283
ry	-284
lement	-285
to	-286
▁object	-287
als	-288
▁length	-289
▁context	-290
ort	-291
of	-292
art	-293
ponse	-294
pl	-295
fo	-296
att	-297
ime	-298
ain	-299
▁do	-300
ator	-301
err	-302
ray	-303
pert	-304
ctor	-305
array	-306
▁true	-307
ition	-308
ity	-309
ist	-310
▁case	-311
ack	-312
alse	-313
_13	-314
▁out	-315
ong	-316
ith	-317
rib	-318
▁equ	-319
▁log	-320
▁false	-321
ren	-322
class	-323
us	-324
pre	-325
for	-326
▁|	-327
▁equals	-328
▁file	-329
com	-330
▁request	-331
ilder	-332
error	-333
ream	-334
essage	-335
▁cre	-336
request	-337
context	-338
ger	-339
▁put	-340
ure	-341
▁map	-342
cess	-343
ifi	-344
▁be	-345
▁col	-346
_14	-347
▁instance	-348
vent	-349
ler	-350
ild	-351
map	-352
▁size	-353
▁@	-354
▁writ	-355
col	-356
ader	-357
▁byt	-358
▁u	-359
ount	-360
ach	-361
ute	-362
ken	-363
ore	-364
▁++	-365
▁ent	-366
▁long	-367
▁param	-368
vice	-369
▁'	-370
out	-371
▁ser	-372
▁||	-373
▁x	-374
ang	-375
▁id	-376
ener	-377
urren	-378
rom	-379
ans	-380
ak	-381
ssion	-382
▁of	-383
▁it	-384
ine	-385
▁po	-386
attrib	-387
ord	-388
ial	-389
mat	-390
▁field	-391
▁*	-392
ffer	-393
file	-394
▁not	-395
quer	-396
▁start	-397
yn	-398
ile	-399
son	-400
ax	-401
perty	-402
▁wh	-403
eck	-404
_15	-405
ument	-406
▁char	-407
val	-408
▁on	-409
query	-410
▁tostring	-411
url	-412
tt	-413
config	-414
av	-415
▁path	-416
esc	-417
util	-418
path	-419
▁un	-420
mar	-421
▁byte	-422
param	-423
cal	-424
lient	-425
▁response	-426
reak	-427
port	-428
▁index	-429
▁getname	-430
ow	-431
ctory	-432
ename	-433
▁se	-434
ies	-435
▁has	-436
▁break	-437
stream	-438
▁or	-439
▁create	-440
andler	-441
iv	-442
fault	-443
▁_	-444
pa	-445
uble	-446
shall	-447
▁sub	-448
roup	-449
ected	-450
▁array	-451
▁instanceof	-452
urrent	-453
▁node	-454
pty	-455
ly	-456
▁data	-457
ence	-458
▁arg	-459
builder	-460
object	-461
ind	-462
_16	-463
state	-464
ire	-465
▁error	-466
ule	-467
ac	-468
time	-469
sc	-470
tected	-471
arget	-472
▁en	-473
op	-474
mo	-475
ated	-476
index	-477
date	-478
▁exception	-479
ir	-480
mpty	-481
▁config	-482
▁double	-483
eter	-484
nect	-485
ber	-486
▁io	-487
ust	-488
ign	-489
▁pre	-490
▁annotation	-491
result	-492
ast	-493
▁element	-494
umn	-495
▁k	-496
ecut	-497
ht	-498
ere	-499
ip	-500
▁ext	-501
▁as	-502
stat	-503
▁and	-504
uration	-505
read	-506
cation	-507
sion	-508
fin	-509
pos	-510
_17	-511
code	-512
info	-513
element	-514
field	-515
▁sh	-516
ask	-517
ay	-518
est	-519
▁up	-520
▁an	-521
yst	-522
▁read	-523
odel	-524
lection	-525
▁entry	-526
▁pr	-527
▁su	-528
ilter	-529
ound	-530
▁contain	-531
ttp	-532
▁from	-533
ob	-534
▁message	-535
fer	-536
ystem	-537
instance	-538
ink	-539
form	-540
count	-541
attribute	-542
▁ioexception	-543
data	-544
▁next	-545
▁with	-546
node	-547
▁format	-548
ive	-549
met	-550
▁end	-551
leg	-552
▁state	-553
▁we	-554
low	-555
▁default	-556
▁input	-557
▁al	-558
▁json	-559
inter	-560
lock	-561
add	-562
mit	-563
▁2	-564
message	-565
▁iter	-566
get	-567
sed	-568
anag	-569
▁query	-570
_18	-571
str	-572
▁token	-573
pression	-574
ml	-575
▁target	-576
ponent	-577
▁check	-578
marshall	-579
▁im	-580
null	-581
log	-582
▁while	-583
ert	-584
▁ise	-585
▁info	-586
▁current	-587
pla	-588
factory	-589
peration	-590
▁remo	-591
▁url	-592
action	-593
▁val	-594
oc	-595
with	-596
ress	-597
lit	-598
▁ro	-599
ms	-600
nection	-601
escri	-602
▁event	-603
▁resource	-604
ava	-605
property	-606
▁dat	-607
▁buffer	-608
▁getvalue	-609
group	-610
abled	-611
pec	-612
ffset	-613
service	-614
uth	-615
rap	-616
▁isempty	-617
if	-618
let	-619
method	-620
▁y	-621
response	-622
▁comm	-623
▁build	-624
umber	-625
ork	-626
act	-627
▁run	-628
ized	-629
▁sc	-630
anager	-631
gist	-632
eger	-633
_19	-634
▁write	-635
▁le	-636
▁ac	-637
▁trans	-638
ory	-639
size	-640
ache	-641
vid	-642
▁he	-643
handler	-644
perties	-645
▁user	-646
ings	-647
▁values	-648
ight	-649
▁ob	-650
▁logger	-651
protected	-652
client	-653
back	-654
writ	-655
▁super	-656
▁http	-657
dat	-658
ble	-659
be	-660
▁source	-661
item	-662
cre	-663
bug	-664
elet	-665
utils	-666
valid	-667
▁time	-668
▁clo	-669
▁inter	-670
event	-671
ference	-672
rst	-673
byt	-674
▁system	-675
he	-676
by	-677
▁item	-678
▁print	-679
▁args	-680
are	-681
ron	-682
lu	-683
uri	-684
resource	-685
▁option	-686
ange	-687
▁gets	-688
▁max	-689
point	-690
ail	-691
▁builder	-692
finition	-693
--	-694
eters	-695
enc	-696
pr	-697
unction	-698
▁contains	-699
▁remove	-700
▁call	-701
▁property	-702
_20	-703
nal	-704
▁str	-705
lect	-706
.""	-707
view	-708
not	-709
ynch	-710
tr	-711
▁text	-712
▁output	-713
plic	-714
entry	-715
▁match	-716
ost	-717
legal	-718
▁collection	-719
▁mar	-720
etype	-721
vel	-722
ric	-723
tocol	-724
▁ass	-725
▁integer	-726
▁pos	-727
▁writer	-728
ass	-729
▁getc	-730
cord	-731
attribut	-732
ard	-733
fix	-734
▁il	-735
argument	-736
ces	-737
manager	-738
user	-739
check	-740
▁init	-741
enabled	-742
marshaller	-743
loat	-744
ner	-745
tern	-746
▁sp	-747
▁content	-748
ts	-749
ple	-750
▁illegal	-751
from	-752
ecution	-753
arn	-754
▁parse	-755
buffer	-756
line	-757
arch	-758
adata	-759
impl	-760
one	-761
▁client	-762
option	-763
ret	-764
ill	-765
use	-766
▁stream	-767
▁extend	-768
▁iterator	-769
version	-770
serv	-771
var	-772
▁java	-773
▁met	-774
▁service	-775
▁line	-776
▁+=	-777
▁arraylist	-778
▁that	-779
load	-780
▁ms	-781
entity	-782
chem	-783
▁count	-784
00	-785
▁local	-786
ptor	-787
_21	-788
▁update	-789
▁getclass	-790
ql	-791
text	-792
rol	-793
token	-794
▁column	-795
attern	-796
und	-797
▁<>	-798
status	-799
▁li	-800
vo	-801
min	-802
ant	-803
▁process	-804
input	-805
▁sw	-806
vider	-807
▁hash	-808
annel	-809
▁find	-810
▁code	-811
link	-812
▁float	-813
▁substring	-814
▁delet	-815
ep	-816
▁filter	-817
column	-818
▁extends	-819
cket	-820
og	-821
place	-822
pace	-823
ync	-824
▁sb	-825
expression	-826
▁vi	-827
eat	-828
▁all	-829
▁params	-830
▁z	-831
▁fa	-832
eres	-833
stra	-834
listener	-835
parameter	-836
andle	-837
ary	-838
dec	-839
os	-840
▁protocol	-841
descri	-842
▁valid	-843
ree	-844
▁msg	-845
mi	-846
definition	-847
▁exec	-848
▁dec	-849
▁pri	-850
▁debug	-851
ages	-852
start	-853
plication	-854
▁can	-855
▁finally	-856
▁sess	-857
▁gener	-858
ifier	-859
iable	-860
ified	-861
▁session	-862
▁sup	-863
configuration	-864
▁->	-865
▁min	-866
_22	-867
ializ	-868
▁obj	-869
opy	-870
ension	-871
▁offset	-872
▁first	-873
▁model	-874
▁entity	-875
▁act	-876
▁protected	-877
component	-878
▁last	-879
▁status	-880
vert	-881
content	-882
ge	-883
▁row	-884
▁doc	-885
▁group	-886
▁dis	-887
own	-888
ft	-889
empl	-890
▁mod	-891
▁task	-892
output	-893
itch	-894
length	-895
case	-896
oul	-897
filter	-898
▁cal	-899
stru	-900
ould	-901
ws	-902
▁tag	-903
format	-904
▁>=	-905
▁getid	-906
lay	-907
▁at	-908
▁parent	-909
sum	-910
▁view	-911
▁cl	-912
mod	-913
▁execute	-914
▁tri	-915
ope	-916
▁gettype	-917
word	-918
▁marshall	-919
uture	-920
server	-921
▁date	-922
session	-923
plet	-924
▁close	-925
▁operation	-926
comm	-927
▁base	-928
call	-929
ody	-930
idth	-931
ynchron	-932
store	-933
▁regist	-934
access	-935
json	-936
▁child	-937
attributes	-938
order	-939
address	-940
cod	-941
▁""\	-942
▁ne	-943
bo	-944
▁spec	-945
▁3	-946
model	-947
rc	-948
ilename	-949
swith	-950
▁cla	-951
▁number	-952
▁contin	-953
▁buf	-954
▁att	-955
▁non	-956
▁switch	-957
_23	-958
▁gett	-959
gin	-960
▁connection	-961
▁are	-962
ud	-963
▁attribute	-964
▁table	-965
ification	-966
▁parameter	-967
▁server	-968
ave	-969
▁sec	-970
rics	-971
auth	-972
▁replace	-973
next	-974
);	-975
operation	-976
ln	-977
connection	-978
▁continue	-979
▁so	-980
emplate	-981
ld	-982
base	-983
ping	-984
▁by	-985
▁ab	-986
bytes	-987
older	-988
▁tc	-989
eto	-990
▁compar	-991
▁auth	-992
child	-993
inding	-994
▁per	-995
vis	-996
work	-997
local	-998
▁action	-999
▁job	-1000
apt	-1001
ateg	-1002
▁parameters	-1003
space	-1004
ps	-1005
properties	-1006
▁%	-1007
process	-1008
char	-1009
iled	-1010
▁synchron	-1011
ses	-1012
▁configuration	-1013
▁stringbuilder	-1014
▁exist	-1015
cond	-1016
pect	-1017
we	-1018
pth	-1019
▁illegalargument	-1020
▁command	-1021
gment	-1022
▁vis	-1023
▁tra	-1024
reg	-1025
posit	-1026
dis	-1027
metadata	-1028
provider	-1029
▁load	-1030
▁serv	-1031
quire	-1032
▁properties	-1033
parent	-1034
▁num	-1035
▁invo	-1036
over	-1037
sp	-1038
lab	-1039
writer	-1040
dire	-1041
▁synchronized	-1042
trans	-1043
_24	-1044
igin	-1045
ilit	-1046
▁position	-1047
tx	-1048
▁root	-1049
ym	-1050
xception	-1051
unit	-1052
▁<=	-1053
▁vers	-1054
▁oth	-1055
sub	-1056
part	-1057
af	-1058
ib	-1059
▁rule	-1060
ance	-1061
▁version	-1062
▁split	-1063
▁delete	-1064
▁uri	-1065
queue	-1066
▁function	-1067
▁..	-1068
ual	-1069
return	-1070
loader	-1071
raph	-1072
tra	-1073
iter	-1074
▁""""	-1075
▁no	-1076
uid	-1077
bean	-1078
cur	-1079
match	-1080
ash	-1081
▁handler	-1082
doc	-1083
yle	-1084
▁other	-1085
iven	-1086
▁component	-1087
chema	-1088
db	-1089
cept	-1090
▁part	-1091
itor	-1092
▁will	-1093
values	-1094
stants	-1095
position	-1096
▁...	-1097
raw	-1098
contain	-1099
▁desc	-1100
clu	-1101
pack	-1102
▁getstring	-1103
▁thread	-1104
▁copy	-1105
async	-1106
eature	-1107
▁handle	-1108
▁di	-1109
()	-1110
ply	-1111
ref	-1112
odes	-1113
▁work	-1114
▁db	-1115
cache	-1116
fore	-1117
▁src	-1118
▁println	-1119
elper	-1120
default	-1121
▁test	-1122
▁record	-1123
▁order	-1124
▁pattern	-1125
ape	-1126
lector	-1127
depth	-1128
▁getmessage	-1129
▁cache	-1130
types	-1131
zz	-1132
abase	-1133
▁xml	-1134
lable	-1135
▁dest	-1136
▁empty	-1137
ook	-1138
led	-1139
▁{}	-1140
▁resol	-1141
ates	-1142
xy	-1143
_25	-1144
▁runtime	-1145
▁assert	-1146
ram	-1147
----	-1148
▁trace	-1149
dir	-1150
▁given	-1151
mem	-1152
metrics	-1153
▁4	-1154
▁lab	-1155
execution	-1156
ported	-1157
lar	-1158
lation	-1159
atype	-1160
last	-1161
▁internal	-1162
▁block	-1163
uster	-1164
binding	-1165
▁use	-1166
▁util	-1167
▁cms	-1168
▁mem	-1169
job	-1170
▁listener	-1171
block	-1172
mp	-1173
▁reader	-1174
▁startswith	-1175
pres	-1176
ible	-1177
▁ref	-1178
offset	-1179
ved	-1180
▁execut	-1181
▁filename	-1182
▁sql	-1183
names	-1184
▁mess	-1185
quence	-1186
▁mo	-1187
di	-1188
press	-1189
uc	-1190
max	-1191
▁sd	-1192
ization	-1193
▁api	-1194
▁header	-1195
▁link	-1196
ify	-1197
erce	-1198
sup	-1199
▁document	-1200
run	-1201
▁channel	-1202
ph	-1203
▁bytes	-1204
gener	-1205
ched	-1206
header	-1207
▁argument	-1208
uct	-1209
aders	-1210
▁label	-1211
▁geth	-1212
licy	-1213
lat	-1214
emp	-1215
static	-1216
checked	-1217
▁classname	-1218
so	-1219
cl	-1220
ause	-1221
parameters	-1222
▁ctx	-1223
illi	-1224
function	-1225
▁expression	-1226
▁bean	-1227
▁open	-1228
▁/*	-1229
source	-1230
\""	-1231
mode	-1232
ample	-1233
▁execution	-1234
face	-1235
edi	-1236
▁trim	-1237
▁project	-1238
pan	-1239
gle	-1240
amp	-1241
options	-1242
▁web	-1243
ript	-1244
ok	-1245
ounter	-1246
▁creat	-1247
qual	-1248
record	-1249
▁old	-1250
stack	-1251
▁page	-1252
▁throwable	-1253
variable	-1254
oin	-1255
ourc	-1256
spec	-1257
undle	-1258
▁origin	-1259
▁getkey	-1260
▁dire	-1261
▁cur	-1262
entic	-1263
dic	-1264
label	-1265
mot	-1266
location	-1267
▁options	-1268
lob	-1269
params	-1270
rule	-1271
_26	-1272
▁q	-1273
▁register	-1274
warn	-1275
command	-1276
mission	-1277
▁iss	-1278
ility	-1279
tings	-1280
container	-1281
rame	-1282
▁level	-1283
▁point	-1284
entifier	-1285
reader	-1286
▁convert	-1287
▁mult	-1288
current	-1289
▁clazz	-1290
.0	-1291
bound	-1292
its	-1293
▁optional	-1294
ond	-1295
▁math	-1296
stant	-1297
unk	-1298
▁""/	-1299
__	-1300
table	-1301
▁am	-1302
▁found	-1303
▁port	-1304
found	-1305
byte	-1306
▁op	-1307
ustom	-1308
descriptor	-1309
▁ed	-1310
statement	-1311
helper	-1312
ivity	-1313
loy	-1314
tag	-1315
itle	-1316
ipe	-1317
long	-1318
oogle	-1319
aw	-1320
▁warn	-1321
pected	-1322
▁select	-1323
etime	-1324
pli	-1325
quired	-1326
parator	-1327
lag	-1328
pository	-1329
init	-1330
ids	-1331
▁descri	-1332
▁nonnull	-1333
▁describ	-1334
channel	-1335
ped	-1336
update	-1337
▁ag	-1338
ton	-1339
▁getinstance	-1340
▁us	-1341
ics	-1342
)""	-1343
▁back	-1344
ical	-1345
▁host	-1346
task	-1347
ector	-1348
▁should	-1349
dent	-1350
regist	-1351
parser	-1352
ializer	-1353
▁complet	-1354
valu	-1355
▁but	-1356
▁encod	-1357
▁lang	-1358
play	-1359
level	-1360
▁one	-1361
description	-1362
lear	-1363
unchecked	-1364
ries	-1365
▁must	-1366
ific	-1367
▁keys	-1368
wsrequest	-1369
▁*/	-1370
hash	-1371
reference	-1372
wsrequestmetrics	-1373
cel	-1374
▁getb	-1375
width	-1376
▁pack	-1377
ures	-1378
az	-1379
▁sing	-1380
inner	-1381
▁have	-1382
control	-1383
flow	-1384
io	-1385
clo	-1386
▁sdk	-1387
▁lock	-1388
number	-1389
etail	-1390
▁send	-1391
formation	-1392
▁inputstream	-1393
_27	-1394
▁len	-1395
▁sort	-1396
servlet	-1397
ploy	-1398
▁search	-1399
rapper	-1400
▁application	-1401
▁sign	-1402
change	-1403
rix	-1404
write	-1405
▁need	-1406
▁--	-1407
▁container	-1408
ker	-1409
fact	-1410
ake	-1411
**	-1412
mary	-1413
future	-1414
http	-1415
prefix	-1416
▁any	-1417
apter	-1418
mut	-1419
▁rec	-1420
▁av	-1421
stamp	-1422
straint	-1423
▁image	-1424
omain	-1425
▁only	-1426
▁comp	-1427
lin	-1428
fields	-1429
erequest	-1430
ination	-1431
▁google	-1432
eresponse	-1433
orm	-1434
warnings	-1435
▁suppress	-1436
ract	-1437
▁transaction	-1438
▁cach	-1439
inputstream	-1440
first	-1441
▁left	-1442
image	-1443
buf	-1444
indow	-1445
▁reference	-1446
sor	-1447
stract	-1448
pattern	-1449
thread	-1450
present	-1451
ialize	-1452
▁hashmap	-1453
▁visit	-1454
otal	-1455
▁valueof	-1456
create	-1457
▁parser	-1458
constants	-1459
▁tim	-1460
sl	-1461
▁private	-1462
▁results	-1463
no	-1464
lexception	-1465
▁commerce	-1466
xml	-1467
internal	-1468
▁datas	-1469
upt	-1470
▁store	-1471
cla	-1472
▁asynch	-1473
rans	-1474
▁address	-1475
▁temp	-1476
her	-1477
▁sim	-1478
down	-1479
da	-1480
structor	-1481
▁original	-1482
▁future	-1483
sing	-1484
pc	-1485
▁lay	-1486
def	-1487
▁attr	-1488
ution	-1489
▁before	-1490
▁clear	-1491
▁asynchandler	-1492
ait	-1493
policy	-1494
application	-1495
verter	-1496
▁right	-1497
▁hasnext	-1498
▁co	-1499
econ	-1500
ght	-1501
select	-1502
▁variable	-1503
br	-1504
api	-1505
illis	-1506
▁ter	-1507
gr	-1508
document	-1509
ous	-1510
rag	-1511
dicate	-1512
▁af	-1513
ient	-1514
▁apply	-1515
bol	-1516
system	-1517
▁form	-1518
limit	-1519
color	-1520
encod	-1521
▁callback	-1522
outputstream	-1523
▁body	-1524
▁org	-1525
project	-1526
body	-1527
▁curren	-1528
pendenc	-1529
_28	-1530
page	-1531
invalid	-1532
▁location	-1533
//	-1534
▁getre	-1535
..	-1536
▁specified	-1537
acter	-1538
pool	-1539
failed	-1540
▁exp	-1541
abl	-1542
▁matcher	-1543
callback	-1544
sses	-1545
▁post	-1546
▁reg	-1547
▁pa	-1548
▁short	-1549
arti	-1550
endar	-1551
nown	-1552
▁when	-1553
▁>"	-1554
do	-1555
▁ig	-1556
box	-1557
sert	-1558
▁types	-1559
▁sk	-1560
ich	-1561
ymbol	-1562
entication	-1563
host	-1564
▁fieldname	-1565
▁prefix	-1566
sto	-1567
segment	-1568
etch	-1569
▁5	-1570
debug	-1571
▁invalid	-1572
ide	-1573
ready	-1574
▁ge	-1575
artifact	-1576
sumer	-1577
eser	-1578
▁names	-1579
▁servic	-1580
ilable	-1581
▁getproperty	-1582
▁attributes	-1583
ys	-1584
root	-1585
iterator	-1586
num	-1587
assign	-1588
▁getm	-1589
ordin	-1590
▁feature	-1591
▁factory	-1592
ments	-1593
▁tmp	-1594
ou	-1595
chang	-1596
ell	-1597
perator	-1598
▁top	-1599
keys	-1600
ations	-1601
▁access	-1602
▁"",	-1603
layout	-1604
==	-1605
▁app	-1606
condition	-1607
▁bit	-1608
gress	-1609
▁big	-1610
lower	-1611
▁was	-1612
package	-1613
▁metadata	-1614
old	-1615
enum	-1616
▁database	-1617
▁transform	-1618
▁main	-1619
target	-1620
logger	-1621
etwork	-1622
▁abstract	-1623
fs	-1624
▁sq	-1625
collection	-1626
▁::	-1627
uple	-1628
declar	-1629
ally	-1630
execut	-1631
orage	-1632
exp	-1633
ative	-1634
▁getcurrent	-1635
▁template	-1636
md	-1637
search	-1638
pass	-1639
directory	-1640
ialog	-1641
viron	-1642
▁locale	-1643
▁invoke	-1644
unmarshaller	-1645
_29	-1646
▁height	-1647
▁me	-1648
▁pass	-1649
▁width	-1650
ription	-1651
▁pers	-1652
resh	-1653
:""	-1654
engine	-1655
▁accept	-1656
▁collections	-1657
▁ar	-1658
▁8	-1659
plement	-1660
new	-1661
▁stop	-1662
ick	-1663
supported	-1664
▁then	-1665
iss	-1666
ite	-1667
▁cond	-1668
trace	-1669
▁does	-1670
ignore	-1671
shot	-1672
nap	-1673
inary	-1674
ish	-1675
loc	-1676
mutable	-1677
▁scope	-1678
second	-1679
imal	-1680
▁stack	-1681
andom	-1682
greg	-1683
ater	-1684
mapping	-1685
yc	-1686
ie	-1687
files	-1688
mt	-1689
style	-1690
cing	-1691
oci	-1692
▁messages	-1693
vironment	-1694
▁cluster	-1695
▁validate	-1696
▁sched	-1697
▁>>	-1698
▁cp	-1699
main	-1700
lish	-1701
▁color	-1702
ature	-1703
▁created	-1704
stateexception	-1705
scription	-1706
▁servlet	-1707
sequence	-1708
extension	-1709
▁stringutils	-1710
▁bind	-1711
pair	-1712
utf	-1713
clud	-1714
scope	-1715
resol	-1716
holder	-1717
▁js	-1718
▁ign	-1719
▁prod	-1720
▁em	-1721
▁segment	-1722
▁batch	-1723
▁module	-1724
▁6	-1725
▁schema	-1726
_0	-1727
red	-1728
▁remot	-1729
=""	-1730
▁jsonobject	-1731
▁used	-1732
▁prop	-1733
▁second	-1734
▁statement	-1735
ategy	-1736
ablename	-1737
▁cor	-1738
{}	-1739
▁getd	-1740
ix	-1741
andl	-1742
ek	-1743
srequest	-1744
uch	-1745
▁req	-1746
struct	-1747
▁required	-1748
▁getf	-1749
▁fail	-1750
▁graph	-1751
▁condition	-1752
complet	-1753
▁partition	-1754
lan	-1755
ty	-1756
econt	-1757
napshot	-1758
▁ignore	-1759
▁addall	-1760
tim	-1761
▁extension	-1762
▁enum	-1763
▁ren	-1764
igh	-1765
returns	-1766
reen	-1767
ategory	-1768
▁comput	-1769
▁arrays	-1770
▁exists	-1771
ush	-1772
qui	-1773
riter	-1774
socket	-1775
the	-1776
wer	-1777
ls	-1778
(""	-1779
sol	-1780
account	-1781
▁which	-1782
▁fields	-1783
handle	-1784
▁""'	-1785
comp	-1786
▁files	-1787
▁pe	-1788
ias	-1789
▁limit	-1790
▁control	-1791
ployment	-1792
lobal	-1793
web	-1794
▁{}""	-1795
omet	-1796
river	-1797
▁executor	-1798
interface	-1799
▁provider	-1800
▁iterable	-1801
▁ow	-1802
ome	-1803
me	-1804
▁range	-1805
lowercase	-1806
▁queue	-1807
azon	-1808
▁secur	-1809
inc	-1810
▁nexttoken	-1811
len	-1812
▁jav	-1813
_30	-1814
▁word	-1815
▁bo	-1816
ration	-1817
▁runn	-1818
▁join	-1819
▁mer	-1820
▁atom	-1821
▁custom	-1822
000	-1823
module	-1824
▁after	-1825
mess	-1826
adapter	-1827
mapper	-1828
▁chang	-1829
▁vert	-1830
▁rest	-1831
enu	-1832
ialized	-1833
▁qu	-1834
▁ver	-1835
▁raw	-1836
▁<<	-1837
ins	-1838
▁simple	-1839
▁bundle	-1840
▁failed	-1841
▁timeout	-1842
clientexception	-1843
odo	-1844
▁observ	-1845
endpoint	-1846
proxy	-1847
utton	-1848
ne	-1849
sign	-1850
▁connect	-1851
ormal	-1852
▁tree	-1853
fail	-1854
uccess	-1855
▁description	-1856
▁aut	-1857
▁look	-1858
▁existing	-1859
wrapper	-1860
▁bound	-1861
▁using	-1862
▁already	-1863
▁ht	-1864
▁tx	-1865
vious	-1866
▁nullable	-1867
▁tolowercase	-1868
▁may	-1869
▁proxy	-1870
▁conf	-1871
▁bas	-1872
▁pipe	-1873
mult	-1874
▁security	-1875
eners	-1876
▁elements	-1877
▁character	-1878
clude	-1879
▁amazon	-1880
ship	-1881
▁allow	-1882
>""	-1883
legate	-1884
foundexception	-1885
settings	-1886
enter	-1887
ollow	-1888
only	-1889
args	-1890
▁render	-1891
▁counter	-1892
▁""<	-1893
ragment	-1894
▁total	-1895
fined	-1896
▁style	-1897
▁report	-1898
▁skip	-1899
▁man	-1900
▁into	-1901
detail	-1902
connect	-1903
vision	-1904
▁pay	-1905
--------	-1906
mark	-1907
servic	-1908
dated	-1909
▁plu	-1910
cale	-1911
boolean	-1912
datas	-1913
▁getcontext	-1914
sist	-1915
▁calendar	-1916
ublish	-1917
▁bytebuffer	-1918
java	-1919
▁immutable	-1920
▁there	-1921
▁containskey	-1922
timeout	-1923
integer	-1924
▁"".	-1925
▁indexof	-1926
▁collect	-1927
▁isdebug	-1928
64	-1929
app	-1930
uuid	-1931
▁10	-1932
▁make	-1933
aster	-1934
ority	-1935
unable	-1936
▁httpservlet	-1937
▁interr	-1938
▁targetdepth	-1939
org	-1940
▁linked	-1941
▁cannot	-1942
graph	-1943
▁step	-1944
▁entryset	-1945
▁endpoint	-1946
ertific	-1947
▁mode	-1948
▁nodes	-1949
range	-1950
▁member	-1951
processor	-1952
delet	-1953
▁wrap	-1954
non	-1955
▁interrupt	-1956
atal	-1957
tree	-1958
imension	-1959
▁mat	-1960
ytra	-1961
▁inst	-1962
ear	-1963
teral	-1964
▁unmarshall	-1965
icon	-1966
permission	-1967
▁script	-1968
▁gettext	-1969
role	-1970
empty	-1971
ernal	-1972
amed	-1973
▁isan	-1974
ror	-1975
_31	-1976
protocol	-1977
panel	-1978
button	-1979
▁generate	-1980
▁exit	-1981
identifier	-1982
▁proto	-1983
istory	-1984
▁cloud	-1985
▁isdebugenabled	-1986
▁pair	-1987
▁suc	-1988
iod	-1989
pay	-1990
▁now	-1991
▁expr	-1992
cy	-1993
▁namespace	-1994
▁buffered	-1995
co	-1996
this	-1997
...	-1998
copy	-1999
invo	-2000
▁sum	-2001
ns	-2002
print	-2003
member	-2004
scrib	-2005
edexception	-2006
post	-2007
password	-2008
▁directory	-2009
onth	-2010
ise	-2011
▁idx	-2012
▁provid	-2013
cach	-2014
▁show	-2015
▁charat	-2016
cul	-2017
▁layout	-2018
▁dst	-2019
resources	-2020
▁insert	-2021
▁html	-2022
ero	-2023
sets	-2024
lease	-2025
▁headers	-2026
sure	-2027
wh	-2028
frame	-2029
▁err	-2030
▁prepar	-2031
ials	-2032
▁concurrent	-2033
▁title	-2034
remo	-2035
cingenabled	-2036
▁plugin	-2037
void	-2038
izer	-2039
lush	-2040
▁jc	-2041
▁medi	-2042
pendency	-2043
▁predicate	-2044
▁gr	-2045
patch	-2046
ede	-2047
▁repository	-2048
round	-2049
headers	-2050
ignorecase	-2051
transaction	-2052
bit	-2053
ice	-2054
ytracingenabled	-2055
▁single	-2056
bar	-2057
▁random	-2058
notnull	-2059
▁setvalue	-2060
bers	-2061
ward	-2062
▁flag	-2063
andid	-2064
▁del	-2065
▁pag	-2066
ometry	-2067
▁jj	-2068
gger	-2069
▁observable	-2070
▁expected	-2071
plu	-2072
idget	-2073
stype	-2074
su	-2075
▁persist	-2076
▁full	-2077
ifiers	-2078
▁resources	-2079
elements	-2080
constraint	-2081
▁sequence	-2082
▁fore	-2083
▁tracecomponent	-2084
▁matches	-2085
▁actual	-2086
enot	-2087
ting	-2088
feature	-2089
▁objects	-2090
direct	-2091
▁sqlexception	-2092
prod	-2093
ason	-2094
▁dir	-2095
df	-2096
lang	-2097
ceptor	-2098
template	-2099
curity	-2100
aws	-2101
handlercontext	-2102
▁unit	-2103
partition	-2104
parse	-2105
ived	-2106
ating	-2107
▁conn	-2108
▁reset	-2109
▁opt	-2110
▁socket	-2111
▁pol	-2112
activity	-2113
▁ph	-2114
▁errors	-2115
left	-2116
▁frame	-2117
▁constructor	-2118
32	-2119
▁extract	-2120
▁inject	-2121
ging	-2122
eresult	-2123
ays	-2124
▁encode	-2125
▁pas	-2126
logy	-2127
▁cod	-2128
amb	-2129
▁describe	-2130
▁messag	-2131
▁commit	-2132
01	-2133
eta	-2134
▁currentt	-2135
▁each	-2136
sql	-2137
▁password	-2138
▁mon	-2139
unc	-2140
▁getn	-2141
_32	-2142
▁#	-2143
▁lin	-2144
incip	-2145
pag	-2146
empt	-2147
dest	-2148
lex	-2149
▁notnull	-2150
stacktrace	-2151
iver	-2152
ade	-2153
classname	-2154
ities	-2155
▁""/""	-2156
step	-2157
sec	-2158
▁role	-2159
▁previous	-2160
cer	-2161
▁children	-2162
region	-2163
top	-2164
plugin	-2165
▁metric	-2166
▁cell	-2167
▁mark	-2168
▁wait	-2169
rie	-2170
exist	-2171
ared	-2172
enode	-2173
▁ava	-2174
▁activity	-2175
▁relation	-2176
security	-2177
▁def	-2178
▁resolve	-2179
uage	-2180
open	-2181
ured	-2182
full	-2183
▁vector	-2184
converter	-2185
card	-2186
▁updat	-2187
enumber	-2188
▁unsupported	-2189
andlers	-2190
lick	-2191
gh	-2192
gor	-2193
▁implement	-2194
expected	-2195
▁nod	-2196
executor	-2197
▁gettime	-2198
cap	-2199
▁getint	-2200
▁struct	-2201
rel	-2202
double	-2203
▁draw	-2204
▁account	-2205
]""	-2206
▁'""	-2207
obj	-2208
height	-2209
▁sets	-2210
decimal	-2211
wn	-2212
gorith	-2213
atom	-2214
desc	-2215
▁destination	-2216
cover	-2217
▁rs	-2218
▁username	-2219
▁ele	-2220
▁you	-2221
ced	-2222
build	-2223
▁where	-2224
▁same	-2225
econfig	-2226
▁schem	-2227
ique	-2228
rect	-2229
▁items	-2230
▁push	-2231
strategy	-2232
▁rece	-2233
▁evalu	-2234
ycle	-2235
seconds	-2236
children	-2237
jo	-2238
vm	-2239
anch	-2240
msg	-2241
ection	-2242
▁pop	-2243
▁classloader	-2244
groupname	-2245
▁fetch	-2246
batch	-2247
▁gethe	-2248
▁success	-2249
▁inner	-2250
tual	-2251
ender	-2252
▁todo	-2253
window	-2254
▁hashset	-2255
▁props	-2256
▁cast	-2257
▁compare	-2258
generator	-2259
imum	-2260
▁bucket	-2261
▁passed	-2262
ynam	-2263
▁begin	-2264
cp	-2265
chain	-2266
▁returns	-2267
eclass	-2268
roll	-2269
▁uuid	-2270
▁multi	-2271
classes	-2272
▁resourc	-2273
encoding	-2274
aut	-2275
andard	-2276
solute	-2277
▁tuple	-2278
▁getparent	-2279
▁off	-2280
atew	-2281
matrix	-2282
▁initial	-2283
▁loc	-2284
▁vari	-2285
▁assign	-2286
anaged	-2287
▁cs	-2288
flag	-2289
dentials	-2290
zone	-2291
items	-2292
▁deployment	-2293
▁timestamp	-2294
▁artifact	-2295
▁remote	-2296
au	-2297
nodes	-2298
orization	-2299
▁validation	-2300
▁getpath	-2301
imem	-2302
▁mut	-2303
xff	-2304
▁permission	-2305
eresource	-2306
ecom	-2307
ors	-2308
ialization	-2309
▁matrix	-2310
ia	-2311
ffix	-2312
▁been	-2313
contextkey	-2314
▁settext	-2315
atalog	-2316
▁ssl	-2317
▁mapping	-2318
rypt	-2319
▁authentication	-2320
▁down	-2321
pending	-2322
incipal	-2323
afe	-2324
▁more	-2325
▁cursor	-2326
gorithm	-2327
▁note	-2328
right	-2329
controller	-2330
▁rows	-2331
▁newinstance	-2332
orter	-2333
ier	-2334
relation	-2335
▁getdefault	-2336
▁domain	-2337
▁xm	-2338
▁attach	-2339
angle	-2340
▁normal	-2341
****	-2342
iler	-2343
▁anal	-2344
bounds	-2345
▁collector	-2346
▁testexpression	-2347
▁getattribute	-2348
▁change	-2349
▁getdata	-2350
cs	-2351
stats	-2352
pointer	-2353
counter	-2354
plier	-2355
utdown	-2356
▁compareto	-2357
ict	-2358
man	-2359
▁htt	-2360
▁tokens	-2361
▁getresource	-2362
▁available	-2363
istics	-2364
▁constants	-2365
clus	-2366
istrib	-2367
▁cause	-2368
▁consumer	-2369
information	-2370
ged	-2371
changed	-2372
bin	-2373
schema	-2374
▁sib	-2375
active	-2376
_33	-2377
prequest	-2378
▁fix	-2379
results	-2380
▁la	-2381
registry	-2382
upper	-2383
ookie	-2384
filename	-2385
ibility	-2386
▁attribut	-2387
▁br	-2388
▁window	-2389
▁tw	-2390
acity	-2391
database	-2392
profile	-2393
ertificate	-2394
lid	-2395
entryenabled	-2396
▁bytearray	-2397
interval	-2398
yper	-2399
▁device	-2400
▁cap	-2401
▁isentryenabled	-2402
ens	-2403
ambda	-2404
▁nos	-2405
▁getlocal	-2406
attr	-2407
▁settings	-2408
▁sm	-2409
▁qual	-2410
fac	-2411
crement	-2412
parentelement	-2413
serializer	-2414
▁my	-2415
ular	-2416
▁chain	-2417
▁"<	-2418
▁identifier	-2419
▁registry	-2420
10	-2421
short	-2422
▁outputstream	-2423
▁ok	-2424
▁dig	-2425
attach	-2426
▁ind	-2427
▁than	-2428
▁chunk	-2429
▁arguments	-2430
▁encoding	-2431
▁declar	-2432
medi	-2433
rou	-2434
▁toarray	-2435
failure	-2436
▁intent	-2437
oth	-2438
cluster	-2439
mitive	-2440
▁just	-2441
bundle	-2442
▁methods	-2443
idx	-2444
▁flow	-2445
▁descriptor	-2446
conf	-2447
▁duration	-2448
vers	-2449
▁dataset	-2450
anner	-2451
▁operator	-2452
▁follow	-2453
curren	-2454
▁pla	-2455
miss	-2456
annotations	-2457
▁getuser	-2458
▁os	-2459
▁storage	-2460
12	-2461
asc	-2462
folder	-2463
net	-2464
▁""\""	-2465
▁pool	-2466
tom	-2467
maining	-2468
▁flush	-2469
columns	-2470
▁cancel	-2471
cannot	-2472
▁decode	-2473
▁term	-2474
▁datatype	-2475
groups	-2476
eatures	-2477
plan	-2478
ta	-2479
▁delegate	-2480
://	-2481
html	-2482
pose	-2483
▁associ	-2484
implename	-2485
success	-2486
▁display	-2487
▁common	-2488
▁jar	-2489
▁timeunit	-2490
▁progress	-2491
▁save	-2492
ision	-2493
▁network	-2494
▁bec	-2495
allow	-2496
cast	-2497
▁protobuf	-2498
▁nosuch	-2499
▁0.0	-2500
▁requi	-2501
▁getrequest	-2502
▁charset	-2503
methods	-2504
ince	-2505
▁binary	-2506
▁grid	-2507
oken	-2508
▁entries	-2509
▁don	-2510
▁replaceall	-2511
report	-2512
▁constraint	-2513
▁fil	-2514
cell	-2515
rop	-2516
imemillis	-2517
ffers	-2518
▁environment	-2519
▁ip	-2520
▁cached	-2521
▁cf	-2522
memory	-2523
ground	-2524
\\	-2525
bed	-2526
▁invocation	-2527
vector	-2528
▁aggreg	-2529
expr	-2530
▁getfield	-2531
sent	-2532
▁schedule	-2533
▁getlast	-2534
▁foreach	-2535
▁finish	-2536
den	-2537
▁keyset	-2538
selected	-2539
▁generated	-2540
▁mapper	-2541
▁symbol	-2542
literal	-2543
▁notification	-2544
_34	-2545
▁real	-2546
ablet	-2547
jav	-2548
used	-2549
▁perform	-2550
lank	-2551
adding	-2552
adi	-2553
▁red	-2554
vari	-2555
known	-2556
▁seth	-2557
11	-2558
▁esc	-2559
persist	-2560
▁printstacktrace	-2561
leton	-2562
cat	-2563
could	-2564
abler	-2565
oder	-2566
▁import	-2567
▁payload	-2568
▁env	-2569
▁metrics	-2570
!""	-2571
vertex	-2572
vance	-2573
elo	-2574
ma	-2575
emap	-2576
arguments	-2577
ha	-2578
cent	-2579
▁vertex	-2580
anization	-2581
runtime	-2582
comparator	-2583
econtext	-2584
▁its	-2585
now	-2586
▁active	-2587
▁global	-2588
▁edge	-2589
render	-2590
selector	-2591
sd	-2592
ynamic	-2593
▁aslist	-2594
▁sav	-2595
▁prev	-2596
constructor	-2597
tax	-2598
agent	-2599
▁because	-2600
classloader	-2601
riteria	-2602
▁sol	-2603
▁remov	-2604
▁defaultvalue	-2605
▁pl	-2606
▁7	-2607
verse	-2608
sresult	-2609
▁tre	-2610
▁definition	-2611
▁methodname	-2612
script	-2613
modified	-2614
resolver	-2615
▁owner	-2616
pol	-2617
stop	-2618
progress	-2619
▁det	-2620
▁instant	-2621
other	-2622
faces	-2623
▁geometry	-2624
ability	-2625
▁bigdecimal	-2626
▁support	-2627
andidate	-2628
rows	-2629
gram	-2630
ds	-2631
▁columns	-2632
hs	-2633
absolute	-2634
category	-2635
▁generic	-2636
import	-2637
▁runnable	-2638
▁scan	-2639
fil	-2640
ll	-2641
▁here	-2642
▁sibtr	-2643
byid	-2644
▁0.	-2645
layer	-2646
====	-2647
▁cmd	-2648
domain	-2649
authentication	-2650
▁subject	-2651
metric	-2652
▁product	-2653
▁"".""	-2654
▁acc	-2655
▁16	-2656
▁amazonaws	-2657
▁resp	-2658
assignable	-2659
entries	-2660
▁compute	-2661
uler	-2662
▁parsed	-2663
ten	-2664
listeners	-2665
track	-2666
missing	-2667
▁md	-2668
ateway	-2669
declaration	-2670
▁them	-2671
factor	-2672
bucket	-2673
agement	-2674
click	-2675
▁jax	-2676
▁calcul	-2677
▁modelnode	-2678
origin	-2679
▁()	-2680
gen	-2681
▁profile	-2682
prec	-2683
}""	-2684
▁intvalue	-2685
operator	-2686
ets	-2687
▁originaldepth	-2688
meta	-2689
▁valu	-2690
▁subscription	-2691
mon	-2692
▁lookup	-2693
▁updated	-2694
▁""-	-2695
wait	-2696
commit	-2697
details	-2698
▁datasource	-2699
etrans	-2700
register	-2701
▁submit	-2702
▁oc	-2703
struction	-2704
annotated	-2705
storage	-2706
ogn	-2707
▁ensure	-2708
▁getparameter	-2709
\""""	-2710
▁selected	-2711
▁standard	-2712
title	-2713
▁converter	-2714
cms	-2715
▁example	-2716
▁returned	-2717
ysis	-2718
after	-2719
▁aud	-2720
ume	-2721
pology	-2722
true	-2723
▁ast	-2724
custom	-2725
▁publish	-2726
inf	-2727
available	-2728
▁sel	-2729
chunk	-2730
▁fill	-2731
defined	-2732
▁region	-2733
▁async	-2734
clientexecution	-2735
▁day	-2736
▁>>>	-2737
payload	-2738
▁separator	-2739
▁clean	-2740
display	-2741
▁dependency	-2742
▁stringbuffer	-2743
▁advance	-2744
▁parseint	-2745
lip	-2746
▁isassignable	-2747
▁getsimplename	-2748
▁head	-2749
ablefuture	-2750
▁manager	-2751
▁gu	-2752
ites	-2753
ident	-2754
keep	-2755
repository	-2756
separator	-2757
▁supported	-2758
▁escape	-2759
▁added	-2760
section	-2761
▁initialize	-2762
validation	-2763
▁handlers	-2764
▁scale	-2765
▁topic	-2766
▁pres	-2767
conditions	-2768
▁finalrequest	-2769
▁setproperty	-2770
▁signature	-2771
▁subscrib	-2772
▁serviceresponse	-2773
has	-2774
ested	-2775
_35	-2776
porter	-2777
itional	-2778
asure	-2779
▁ev	-2780
ilities	-2781
pipe	-2782
dbc	-2783
close	-2784
answer	-2785
pent	-2786
yntax	-2787
▁coordin	-2788
▁packag	-2789
▁interval	-2790
product	-2791
▁includ	-2792
▁basic	-2793
▁release	-2794
ssible	-2795
▁deser	-2796
menu	-2797
▁tags	-2798
ef	-2799
▁go	-2800
validator	-2801
environment	-2802
▁sample	-2803
▁getconfig	-2804
▁1.0	-2805
head	-2806
▁direct	-2807
owner	-2808
▁trigger	-2809
▁identity	-2810
adat	-2811
▁httpresponse	-2812
▁extra	-2813
▁binding	-2814
▁removed	-2815
▁named	-2816
▁policy	-2817
havi	-2818
▁merge	-2819
▁fs	-2820
▁getmethod	-2821
ives	-2822
▁memory	-2823
can	-2824
ucer	-2825
ferred	-2826
gg	-2827
▁fire	-2828
roid	-2829
messag	-2830
▁called	-2831
▁getbytes	-2832
zu	-2833
dto	-2834
late	-2835
plicit	-2836
prop	-2837
reshold	-2838
messages	-2839
unknown	-2840
▁endswith	-2841
▁resultset	-2842
complete	-2843
▁miss	-2844
aggreg	-2845
▁9	-2846
▁include	-2847
▁""_	-2848
rs	-2849
▁getobject	-2850
stor	-2851
▁retry	-2852
js	-2853
▁tablename	-2854
mask	-2855
▁track	-2856
▁button	-2857
▁dimension	-2858
▁xmle	-2859
created	-2860
▁see	-2861
▁dialog	-2862
wt	-2863
very	-2864
▁getcolumn	-2865
▁parts	-2866
eed	-2867
jar	-2868
▁timer	-2869
▁ax	-2870
▁classes	-2871
▁sorted	-2872
etoken	-2873
▁information	-2874
dialog	-2875
▁""%	-2876
asstring	-2877
▁comparator	-2878
dd	-2879
▁ds	-2880
▁controller	-2881
▁getstatus	-2882
ift	-2883
▁cls	-2884
ful	-2885
rec	-2886
uppercase	-2887
test	-2888
ily	-2889
▁ws	-2890
▁done	-2891
▁shutdown	-2892
▁pipeline	-2893
▁callable	-2894
eference	-2895
consumer	-2896
lot	-2897
serviceresponse	-2898
blank	-2899
(...	-2900
delete	-2901
▁resolved	-2902
▁unknown	-2903
lice	-2904
▁issue	-2905
fragment	-2906
▁meta	-2907
▁provided	-2908
▁snapshot	-2909
▁getall	-2910
bind	-2911
day	-2912
▁mozu	-2913
wise	-2914
▁sent	-2915
vol	-2916
uplic	-2917
▁datetime	-2918
off	-2919
▁cm	-2920
ottom	-2921
ices	-2922
selection	-2923
▁increment	-2924
te	-2925
▁""[	-2926
ixel	-2927
▁rect	-2928
edata	-2929
erc	-2930
▁12	-2931
▁getcontent	-2932
alle	-2933
identity	-2934
namespace	-2935
eregist	-2936
iple	-2937
sk	-2938
▁complete	-2939
visitor	-2940
inject	-2941
compar	-2942
inst	-2943
▁enc	-2944
▁driver	-2945
ges	-2946
anel	-2947
ency	-2948
bal	-2949
onical	-2950
();	-2951
etable	-2952
▁notify	-2953
▁shape	-2954
marshalling	-2955
▁box	-2956
archive	-2957
fec	-2958
▁retrie	-2959
▁font	-2960
▁mak	-2961
admin	-2962
predicate	-2963
wrap	-2964
associ	-2965
datetime	-2966
alias	-2967
eet	-2968
▁termin	-2969
datatype	-2970
▁managed	-2971
▁100	-2972
▁diff	-2973
▁differ	-2974
▁rout	-2975
cessed	-2976
▁func	-2977
▁under	-2978
(...)""	-2979
▁propertyname	-2980
history	-2981
▁equal	-2982
kind	-2983
_36	-2984
resourc	-2985
▁getde	-2986
▁pc	-2987
▁vol	-2988
▁missing	-2989
lap	-2990
ework	-2991
▁getmax	-2992
ump	-2993
quot	-2994
▁getg	-2995
period	-2996
jb	-2997
▁imag	-2998
nod	-2999
umul	-3000
▁activ	-3001
▁bet	-3002
activ	-3003
book	-3004
▁tt	-3005
external	-3006
▁since	-3007
▁want	-3008
destination	-3009
▁indent	-3010
▁layer	-3011
50	-3012
rece	-3013
formatter	-3014
variables	-3015
16	-3016
mise	-3017
ewith	-3018
fecycle	-3019
▁strings	-3020
▁serializer	-3021
millis	-3022
▁remaining	-3023
nel	-3024
ian	-3025
▁zip	-3026
nt	-3027
ired	-3028
yz	-3029
opt	-3030
▁warning	-3031
sid	-3032
▁constant	-3033
itu	-3034
▁comment	-3035
ted	-3036
▁orderby	-3037
extra	-3038
price	-3039
▁adapter	-3040
▁tile	-3041
▁flags	-3042
ning	-3043
▁two	-3044
▁singleton	-3045
bedd	-3046
ctx	-3047
eset	-3048
▁some	-3049
pha	-3050
cor	-3051
visible	-3052
▁utf	-3053
rate	-3054
float	-3055
alth	-3056
▁loop	-3057
ves	-3058
ffect	-3059
acters	-3060
▁external	-3061
unch	-3062
▁package	-3063
driver	-3064
lf	-3065
allback	-3066
▁ur	-3067
tri	-3068
join	-3069
itive	-3070
codes	-3071
matcher	-3072
▁getfirst	-3073
binary	-3074
las	-3075
appen	-3076
▁weight	-3077
rough	-3078
▁setname	-3079
▁checknotnull	-3080
▁setup	-3081
▁getannotation	-3082
▁getp	-3083
hashmap	-3084
ling	-3085
▁filepath	-3086
remove	-3087
▁tab	-3088
).	-3089
scan	-3090
ao	-3091
▁span	-3092
pendencies	-3093
▁section	-3094
widget	-3095
rict	-3096
▁inet	-3097
▁space	-3098
▁getabsolute	-3099
▁could	-3100
uce	-3101
▁jaxb	-3102
invocation	-3103
▁getx	-3104
stanc	-3105
▁clone	-3106
eration	-3107
summary	-3108
▁running	-3109
▁nan	-3110
▁encoded	-3111
▁ids	-3112
▁loader	-3113
▁mv	-3114
roy	-3115
▁configure	-3116
▁touppercase	-3117
ween	-3118
▁faces	-3119
etext	-3120
▁auto	-3121
dao	-3122
score	-3123
▁getdeclar	-3124
limiter	-3125
-1	-3126
anal	-3127
▁quot	-3128
imation	-3129
pressed	-3130
▁lat	-3131
conn	-3132
▁vir	-3133
▁-=	-3134
▁alloc	-3135
▁detail	-3136
draw	-3137
▁ifc	-3138
dig	-3139
beta	-3140
bas	-3141
esult	-3142
▁saved	-3143
▁year	-3144
▁verify	-3145
ocument	-3146
bus	-3147
▁retval	-3148
ions	-3149
etag	-3150
▁icon	-3151
ank	-3152
▁bits	-3153
ely	-3154
▁bin	-3155
paces	-3156
ervice	-3157
bytearray	-3158
▁ten	-3159
▁listeners	-3160
required	-3161
adius	-3162
lative	-3163
▁ns	-3164
'""	-3165
▁fragment	-3166
edge	-3167
▁exchange	-3168
----------------	-3169
▁distance	-3170
notification	-3171
▁selector	-3172
▁closed	-3173
▁stmt	-3174
commerce	-3175
▁changed	-3176
ifest	-3177
esource	-3178
▁groupid	-3179
▁getchild	-3180
ifiable	-3181
▁ispresent	-3182
▁cookie	-3183
▁ins	-3184
▁stats	-3185
▁scal	-3186
statistics	-3187
▁"",""	-3188
▁bitmap	-3189
▁month	-3190
▁getnext	-3191
before	-3192
▁defined	-3193
otype	-3194
brary	-3195
▁getfile	-3196
▁generator	-3197
exists	-3198
24	-3199
▁enabled	-3200
▁currency	-3201
▁rel	-3202
▁reason	-3203
▁getlog	-3204
▁"":	-3205
points	-3206
▁pointer	-3207
▁od	-3208
18	-3209
elp	-3210
parsed	-3211
▁core	-3212
▁utils	-3213
▁ps	-3214
▁advanced	-3215
istribution	-3216
▁lower	-3217
proto	-3218
▁score	-3219
subscription	-3220
▁shared	-3221
errors	-3222
▁edit	-3223
▁isnot	-3224
creates	-3225
props	-3226
▁alias	-3227
▁mask	-3228
▁protocolfactory	-3229
dc	-3230
dential	-3231
▁period	-3232
▁primary	-3233
▁high	-3234
precated	-3235
_37	-3236
▁deter	-3237
▁consum	-3238
oft	-3239
interceptor	-3240
pane	-3241
▁gen	-3242
▁invok	-3243
network	-3244
▁cr	-3245
just	-3246
sched	-3247
term	-3248
▁implementation	-3249
quals	-3250
▁pk	-3251
▁menu	-3252
paths	-3253
▁virtual	-3254
ols	-3255
▁selection	-3256
amily	-3257
▁instanti	-3258
▁requiren	-3259
▁isnull	-3260
etask	-3261
final	-3262
ison	-3263
seq	-3264
instances	-3265
▁sync	-3266
rout	-3267
look	-3268
split	-3269
/""	-3270
▁engine	-3271
▁round	-3272
;""	-3273
usage	-3274
otstr	-3275
til	-3276
▁sax	-3277
comment	-3278
▁ct	-3279
ense	-3280
▁[""	-3281
transform	-3282
▁route	-3283
▁responsehandler	-3284
▁gl	-3285
otstrap	-3286
▁cpdefinition	-3287
also	-3288
▁deleted	-3289
▁represent	-3290
▁category	-3291
▁nam	-3292
bits	-3293
sort	-3294
year	-3295
▁interface	-3296
▁visitor	-3297
yg	-3298
accessexception	-3299
perand	-3300
▁wrapper	-3301
▁newvalue	-3302
ether	-3303
▁agent	-3304
timestamp	-3305
▁getabsolutepath	-3306
▁export	-3307
▁admin	-3308
question	-3309
etty	-3310
</	-3311
▁pending	-3312
▁serialize	-3313
device	-3314
▁candidate	-3315
▁folder	-3316
▁arraycopy	-3317
▁1000	-3318
▁language	-3319
capacity	-3320
imetype	-3321
gets	-3322
itude	-3323
▁failure	-3324
rest	-3325
▁registered	-3326
▁dispatch	-3327
▁require	-3328
yp	-3329
▁setattribute	-3330
vas	-3331
ceed	-3332
curs	-3333
▁self	-3334
services	-3335
▁annotations	-3336
objects	-3337
▁getentity	-3338
-8	-3339
▁keep	-3340
▁preconditions	-3341
optional	-3342
55	-3343
▁httprequest	-3344
oriz	-3345
▁dt	-3346
eric	-3347
▁dom	-3348
▁mediatype	-3349
attachment	-3350
▁paths	-3351
month	-3352
weight	-3353
sem	-3354
▁prepare	-3355
▁opl	-3356
ither	-3357
▁center	-3358
▁allowed	-3359
lines	-3360
ways	-3361
fic	-3362
onnull	-3363
▁"":""	-3364
append	-3365
▁plan	-3366
▁oplambda	-3367
▁getsub	-3368
sole	-3369
▁panel	-3370
rt	-3371
▁inf	-3372
▁atomic	-3373
▁kind	-3374
▁datab	-3375
zip	-3376
▁tom	-3377
edis	-3378
▁ts	-3379
▁fine	-3380
▁sever	-3381
words	-3382
▁stage	-3383
shal	-3384
preference	-3385
▁jsonarray	-3386
algorithm	-3387
ils	-3388
▁unique	-3389
schem	-3390
any	-3391
▁setstate	-3392
havior	-3393
▁upload	-3394
▁linkedlist	-3395
▁bad	-3396
mer	-3397
▁login	-3398
▁""]	-3399
aud	-3400
▁div	-3401
ead	-3402
formed	-3403
pn	-3404
shape	-3405
▁getin	-3406
▁contenttype	-3407
posite	-3408
gateway	-3409
▁sdkinternal	-3410
respon	-3411
▁zero	-3412
▁otherwise	-3413
closed	-3414
▁based	-3415
▁best	-3416
attempt	-3417
▁fast	-3418
▁compile	-3419
▁startevent	-3420
▁formatter	-3421
▁answer	-3422
ole	-3423
▁neg	-3424
lim	-3425
▁|=	-3426
▁authorization	-3427
processing	-3428
istic	-3429
ecount	-3430
▁tolist	-3431
▁classnot	-3432
▁ec	-3433
▁serializ	-3434
▁ma	-3435
▁""'""	-3436
▁iv	-3437
▁getcurrentdepth	-3438
ransaction	-3439
aven	-3440
▁executorservice	-3441
▁also	-3442
▁points	-3443
multi	-3444
go	-3445
▁hist	-3446
covery	-3447
▁transport	-3448
▁catalog	-3449
▁additional	-3450
▁processing	-3451
▁flat	-3452
▁onerror	-3453
▁events	-3454
nd	-3455
credentials	-3456
▁""\\	-3457
▁getboolean	-3458
apro	-3459
▁seconds	-3460
▁"")""	-3461
efinition	-3462
equest	-3463
▁charsequence	-3464
▁structure	-3465
▁getunmarshaller	-3466
character	-3467
issue	-3468
sm	-3469
bedded	-3470
▁screen	-3471
▁arr	-3472
pings	-3473
enames	-3474
▁sam	-3475
▁getas	-3476
compat	-3477
language	-3478
▁te	-3479
ux	-3480
▁widget	-3481
unique	-3482
_38	-3483
▁dist	-3484
▁priority	-3485
▁install	-3486
imap	-3487
plied	-3488
▁parseexception	-3489
find	-3490
▁recogn	-3491
20	-3492
calendar	-3493
dataset	-3494
▁collectors	-3495
cker	-3496
mn	-3497
▁/**	-3498
▁getsource	-3499
alt	-3500
▁worker	-3501
mx	-3502
▁possible	-3503
primary	-3504
56	-3505
▁variables	-3506
ictype	-3507
▁emit	-3508
▁upper	-3509
lash	-3510
▁lists	-3511
▁forward	-3512
▁requirenonnull	-3513
remot	-3514
events	-3515
▁cd	-3516
ildcard	-3517
generic	-3518
ereference	-3519
locale	-3520
fetch	-3521
▁refresh	-3522
idden	-3523
▁chars	-3524
▁dot	-3525
80	-3526
▁)"	-3527
marshalltime	-3528
emodel	-3529
symbol	-3530
ortable	-3531
▁getindex	-3532
principal	-3533
▁scheduler	-3534
▁{"	-3535
allowed	-3536
▁sle	-3537
▁modifier	-3538
▁transformer	-3539
inal	-3540
avig	-3541
▁place	-3542
less	-3543
ories	-3544
▁abs	-3545
▁annotated	-3546
▁attempt	-3547
send	-3548
encoder	-3549
formatexception	-3550
▁gram	-3551
▁classpath	-3552
▁portal	-3553
▁email	-3554
publish	-3555
▁groups	-3556
uper	-3557
collector	-3558
uring	-3559
▁direction	-3560
▁none	-3561
safe	-3562
ecord	-3563
▁xmlevent	-3564
▁der	-3565
▁getelement	-3566
ygon	-3567
▁enable	-3568
▁immutablelist	-3569
▁criteria	-3570
▁dim	-3571
ui	-3572
watch	-3573
ied	-3574
▁css	-3575
▁(""	-3576
env	-3577
emanager	-3578
flags	-3579
background	-3580
▁getter	-3581
▁validator	-3582
constant	-3583
datasource	-3584
qualified	-3585
▁typename	-3586
▁branch	-3587
span	-3588
plex	-3589
vir	-3590
irc	-3591
support	-3592
▁border	-3593
global	-3594
cr	-3595
ended	-3596
cance	-3597
balan	-3598
▁recover	-3599
pop	-3600
assignment	-3601
primitive	-3602
icket	-3603
▁decod	-3604
▁cc	-3605
▁attrs	-3606
▁isvalid	-3607
▁bufferedreader	-3608
▁codec	-3609
▁servicename	-3610
priority	-3611
exec	-3612
▁resolver	-3613
olver	-3614
▁lastindex	-3615
loop	-3616
▁popul	-3617
▁lines	-3618
▁forname	-3619
fixed	-3620
nam	-3621
▁cas	-3622
▁getcomponent	-3623
resses	-3624
implement	-3625
font	-3626
▁our	-3627
ee	-3628
iom	-3629
concept	-3630
updat	-3631
▁connector	-3632
▁sure	-3633
tags	-3634
stoken	-3635
rm	-3636
begin	-3637
▁ker	-3638
▁principal	-3639
▁bounds	-3640
*/	-3641
▁getlength	-3642
▁requested	-3643
▁jvm	-3644
▁dynamic	-3645
escriptor	-3646
cursor	-3647
oot	-3648
finish	-3649
duration	-3650
virtual	-3651
▁digest	-3652
▁move	-3653
insert	-3654
arraylist	-3655
constraints	-3656
authorization	-3657
▁getlong	-3658
gb	-3659
▁suffix	-3660
ramework	-3661
▁inpos	-3662
▁contract	-3663
ationexception	-3664
1""	-3665
upload	-3666
▁without	-3667
edit	-3668
▁slot	-3669
ordinal	-3670
▁gethost	-3671
▁getnode	-3672
▁milli	-3673
▁gettarget	-3674
▁logging	-3675
▁peek	-3676
▁getversion	-3677
false	-3678
irror	-3679
▁helper	-3680
▁starttime	-3681
ssl	-3682
▁delta	-3683
imag	-3684
▁getresponse	-3685
ints	-3686
▁roll	-3687
imple	-3688
▁ut	-3689
▁multiple	-3690
▁ist	-3691
▁internalx	-3692
▁supplier	-3693
0000	-3694
author	-3695
signed	-3696
▁delay	-3697
().	-3698
area	-3699
light	-3700
▁evaluate	-3701
▁alt	-3702
▁workflow	-3703
▁analysis	-3704
fieldaccess	-3705
groupid	-3706
▁between	-3707
▁topology	-3708
ros	-3709
blem	-3710
lib	-3711
▁getwidth	-3712
ctionary	-3713
▁tempor	-3714
▁oauth	-3715
********	-3716
▁sip	-3717
▁getstart	-3718
▁fh	-3719
▁zone	-3720
board	-3721
▁through	-3722
▁always	-3723
▁grammar	-3724
ench	-3725
equals	-3726
▁curr	-3727
buffers	-3728
▁prepared	-3729
▁holder	-3730
▁deprecated	-3731
username	-3732
▁"")	-3733
▁factor	-3734
▁getsession	-3735
tn	-3736
▁they	-3737
hook	-3738
▁transition	-3739
▁ann	-3740
agesize	-3741
hing	-3742
▁unlock	-3743
econfiguration	-3744
▁checkargument	-3745
core	-3746
evalu	-3747
▁regex	-3748
▁cb	-3749
arm	-3750
agn	-3751
▁addparameter	-3752
byname	-3753
▁credentials	-3754
▁matching	-3755
elog	-3756
center	-3757
ov	-3758
example	-3759
_39	-3760
ecol	-3761
▁algorithm	-3762
snapshot	-3763
▁history	-3764
acy	-3765
▁ignored	-3766
eref	-3767
▁words	-3768
yto	-3769
▁ident	-3770
▁jsont	-3771
▁concat	-3772
▁strategy	-3773
▁userid	-3774
sw	-3775
eader	-3776
slist	-3777
clusive	-3778
▁ff	-3779
▁httpclient	-3780
locator	-3781
esh	-3782
▁calculate	-3783
▁primitive	-3784
▁getroot	-3785
▁getservice	-3786
returntype	-3787
monitor	-3788
▁persistence	-3789
▁syn	-3790
▁sender	-3791
self	-3792
rowser	-3793
email	-3794
▁getj	-3795
////	-3796
▁expand	-3797
▁respon	-3798
▁keystore	-3799
emplat	-3800
▁isset	-3801
##	-3802
▁canvas	-3803
▁wrapped	-3804
▁typed	-3805
itespace	-3806
▁certificate	-3807
cedure	-3808
▁getstate	-3809
chars	-3810
▁changes	-3811
▁des	-3812
▁$	-3813
▁low	-3814
▁modify	-3815
"",	-3816
▁eval	-3817
▁master	-3818
jsonobject	-3819
▁characters	-3820
▁stor	-3821
▁download	-3822
▁parameterized	-3823
▁revision	-3824
▁fac	-3825
▁configured	-3826
initialized	-3827
▁restore	-3828
single	-3829
▁doesn	-3830
andset	-3831
▁features	-3832
ilab	-3833
secret	-3834
▁codestring	-3835
▁safe	-3836
rules	-3837
velope	-3838
lastic	-3839
throw	-3840
andefinition	-3841
organization	-3842
tostring	-3843
▁dev	-3844
▁hour	-3845
▁seq	-3846
ulk	-3847
▁addr	-3848
▁sv	-3849
det	-3850
▁mutable	-3851
▁visible	-3852
▁tok	-3853
▁elem	-3854
▁tool	-3855
▁whether	-3856
marker	-3857
ierarch	-3858
▁present	-3859
lack	-3860
▁modified	-3861
▁net	-3862
▁jdbc	-3863
▁variant	-3864
stit	-3865
▁resolv	-3866
oring	-3867
println	-3868
▁interceptor	-3869
▁depth	-3870
▁bb	-3871
▁injection	-3872
▁relative	-3873
tab	-3874
actions	-3875
▁axis	-3876
▁currentthread	-3877
dr	-3878
ipher	-3879
ele	-3880
feat	-3881
cluded	-3882
▁bro	-3883
▁gettag	-3884
pac	-3885
common	-3886
setting	-3887
dt	-3888
ignment	-3889
jsonunmarshaller	-3890
▁bus	-3891
▁newbuilder	-3892
▁enumeration	-3893
race	-3894
iration	-3895
pentry	-3896
insn	-3897
▁nested	-3898
▁laz	-3899
delay	-3900
escape	-3901
▁setcontent	-3902
▁literal	-3903
▁android	-3904
▁extended	-3905
▁different	-3906
revision	-3907
▁numberof	-3908
▁'%	-3909
▁either	-3910
editor	-3911
▁ii	-3912
▁asset	-3913
:1	-3914
tc	-3915
▁amount	-3916
imate	-3917
-8""	-3918
▁editor	-3919
▁pm	-3920
▁pipelin	-3921
▁ld	-3922
▁getdeclared	-3923
signature	-3924
▁entitytype	-3925
anges	-3926
▁xmlstream	-3927
icker	-3928
▁rules	-3929
▁audit	-3930
02	-3931
▁plat	-3932
▁mid	-3933
accept	-3934
0""	-3935
convert	-3936
*""	-3937
super	-3938
raction	-3939
▁columnname	-3940
fully	-3941
▁specific	-3942
ural	-3943
▁duplic	-3944
▁cert	-3945
▁happen	-3946
cesstoken	-3947
▁getheight	-3948
▁slice	-3949
login	-3950
▁person	-3951
▁like	-3952
arr	-3953
nls	-3954
ialect	-3955
▁facescontext	-3956
▁isn	-3957
mine	-3958
pointerexception	-3959
comput	-3960
▁jo	-3961
▁ll	-3962
packag	-3963
▁completed	-3964
rift	-3965
▁correct	-3966
ene	-3967
ogram	-3968
▁getsign	-3969
export	-3970
▁instances	-3971
▁portlet	-3972
▁recognition	-3973
vileg	-3974
registration	-3975
kee	-3976
▁ejb	-3977
▁let	-3978
▁getconnection	-3979
▁organization	-3980
members	-3981
updated	-3982
cessary	-3983
permissions	-3984
_40	-3985
▁mc	-3986
ually	-3987
▁about	-3988
▁fn	-3989
▁bl	-3990
▁question	-3991
topic	-3992
▁monitor	-3993
ryption	-3994
▁fileinputstream	-3995
▁drop	-3996
certificate	-3997
▁associated	-3998
ators	-3999
div	-4000
▁analyz	-4001
▁indarray	-4002
▁getresult	-4003
▁maximum	-4004
▁rot	-4005
person	-4006
changes	-4007
labels	-4008
screen	-4009
▁sym	-4010
▁needed	-4011
▁bug	-4012
▁eclass	-4013
▁bytebuf	-4014
move	-4015
bl	-4016
▁biginteger	-4017
▁sourc	-4018
structure	-4019
definitions	-4020
▁marker	-4021
▁""]""	-4022
▁xpath	-4023
▁started	-4024
▁processor	-4025
▁both	-4026
thing	-4027
axis	-4028
codec	-4029
▁settype	-4030
ross	-4031
▁//$	-4032
▁getor	-4033
▁tasks	-4034
ouble	-4035
ackage	-4036
▁secret	-4037
delement	-4038
engin	-4039
▁force	-4040
eservice	-4041
ables	-4042
▁ra	-4043
▁until	-4044
▁getclient	-4045
instancestate	-4046
▁operations	-4047
ants	-4048
▁mbean	-4049
▁accumul	-4050
adow	-4051
▁hex	-4052
▁contents	-4053
fe	-4054
ptr	-4055
▁attachment	-4056
▁platform	-4057
▁compiler	-4058
▁appro	-4059
▁istra	-4060
▁^	-4061
running	-4062
getter	-4063
sheet	-4064
▁httpmethod	-4065
subscrib	-4066
▁emptylist	-4067
▁reflection	-4068
filters	-4069
▁nd	-4070
quenc	-4071
dependency	-4072
▁deserialize	-4073
▁gety	-4074
▁chart	-4075
▁retrieve	-4076
herit	-4077
▁ib	-4078
mediate	-4079
▁lastindexof	-4080
queries	-4081
del	-4082
▁mapped	-4083
extensions	-4084
▁gettask	-4085
tain	-4086
parts	-4087
▁gre	-4088
▁ss	-4089
connector	-4090
▁redirect	-4091
▁mojo	-4092
▁services	-4093
argin	-4094
▁onsuccess	-4095
▁tail	-4096
added	-4097
visibility	-4098
elock	-4099
▁shard	-4100
▁hashcode	-4101
▁sem	-4102
▁tenant	-4103
▁alert	-4104
▁encoder	-4105
▁peer	-4106
under	-4107
▁kernel	-4108
▁ba	-4109
usters	-4110
▁qname	-4111
▁writeint	-4112
addr	-4113
paint	-4114
upport	-4115
▁redis	-4116
▁bar	-4117
pipeline	-4118
oom	-4119
▁lex	-4120
stage	-4121
provid	-4122
assert	-4123
▁https	-4124
indic	-4125
▁""</	-4126
show	-4127
accessor	-4128
arge	-4129
▁filters	-4130
total	-4131
clusion	-4132
features	-4133
▁nothing	-4134
hex	-4135
decl	-4136
real	-4137
▁again	-4138
more	-4139
enar	-4140
▁payment	-4141
▁ui	-4142
▁bottom	-4143
ached	-4144
▁bs	-4145
backup	-4146
▁management	-4147
nullable	-4148
▁packet	-4149
▁sr	-4150
▁writel	-4151
▁watch	-4152
versation	-4153
atted	-4154
▁20	-4155
▁trust	-4156
retry	-4157
oop	-4158
▁fixed	-4159
need	-4160
icip	-4161
instanceid	-4162
▁locator	-4163
▁setenabled	-4164
andling	-4165
achine	-4166
ores	-4167
▁destroy	-4168
▁alpha	-4169
▁javax	-4170
▁paint	-4171
iterable	-4172
ereader	-4173
▁websocket	-4174
▁never	-4175
persistence	-4176
▁getlocation	-4177
▁geta	-4178
charset	-4179
▁buffers	-4180
▁reporter	-4181
gt	-4182
scroll	-4183
▁getmin	-4184
▁pd	-4185
mitiv	-4186
dispatch	-4187
lt	-4188
▁git	-4189
▁dd	-4190
▁asc	-4191
▁ca	-4192
▁""$	-4193
reason	-4194
bag	-4195
▁tot	-4196
connected	-4197
tool	-4198
ii	-4199
dev	-4200
▁construct	-4201
currency	-4202
ik	-4203
▁setting	-4204
ords	-4205
▁declared	-4206
▁avoid	-4207
▁mp	-4208
▁know	-4209
========	-4210
enchmark	-4211
▁24	-4212
▁jsonnode	-4213
neg	-4214
diff	-4215
▁getlastparsed	-4216
▁attributename	-4217
▁exceptions	-4218
▁32	-4219
modifiers	-4220
▁usage	-4221
▁free	-4222
logging	-4223
=\""	-4224
ecode	-4225
▁instead	-4226
based	-4227
orizont	-4228
▁console	-4229
▁es	-4230
abilities	-4231
▁authentic	-4232
▁labels	-4233
▁geterror	-4234
▁promise	-4235
▁decimal	-4236
▁scanner	-4237
▁milliseconds	-4238
vars	-4239
▁coordinate	-4240
▁nodelist	-4241
arto	-4242
cancel	-4243
sample	-4244
▁overrid	-4245
▁servicecallback	-4246
▁getcause	-4247
prepar	-4248
▁backup	-4249
ho	-4250
cloud	-4251
oice	-4252
consum	-4253
▁getr	-4254
▁solution	-4255
▁executed	-4256
▁conversion	-4257
22	-4258
icom	-4259
ypereference	-4260
▁deploy	-4261
observer	-4262
fill	-4263
▁components	-4264
operations	-4265
initial	-4266
decoder	-4267
▁getchildren	-4268
ferenc	-4269
omat	-4270
▁blob	-4271
▁sn	-4272
finder	-4273
branch	-4274
emethod	-4275
▁findby	-4276
▁nc	-4277
auto	-4278
started	-4279
▁pt	-4280
▁putall	-4281
?""	-4282
▁getport	-4283
▁findview	-4284
▁native	-4285
infos	-4286
mm	-4287
▁rpc	-4288
replace	-4289
▁getapplication	-4290
agnost	-4291
querybuilder	-4292
orempty	-4293
axunmarshaller	-4294
▁getheader	-4295
▁way	-4296
▁"/	-4297
▁another	-4298
▁archive	-4299
201	-4300
rupt	-4301
▁bootstrap	-4302
▁during	-4303
▁sessionid	-4304
gable	-4305
▁featureid	-4306
▁qualified	-4307
▁hand	-4308
irectory	-4309
ware	-4310
ffic	-4311
lookup	-4312
roov	-4313
pk	-4314
▁author	-4315
▁createt	-4316
▁getdescription	-4317
▁completion	-4318
blocking	-4319
▁pw	-4320
aller	-4321
▁""(	-4322
▁site	-4323
family	-4324
▁adapt	-4325
htt	-4326
▁got	-4327
▁objectname	-4328
▁getclassloader	-4329
▁prob	-4330
),	-4331
cause	-4332
▁lazy	-4333
▁returntype	-4334
ology	-4335
olation	-4336
pany	-4337
border	-4338
reenode	-4339
▁clas	-4340
forward	-4341
▁received	-4342
▁\	-4343
big	-4344
▁manifest	-4345
▁sleep	-4346
▁card	-4347
▁href	-4348
▁\""	-4349
distance	-4350
"");	-4351
imator	-4352
▁est	-4353
▁stored	-4354
▁would	-4355
geometry	-4356
▁enter	-4357
▁linkedhashmap	-4358
▁geturl	-4359
fc	-4360
▁poll	-4361
mand	-4362
pact	-4363
▁[{}	-4364
-1$	-4365
▁mt	-4366
istribut	-4367
req	-4368
absent	-4369
▁tobytearray	-4370
▁patch	-4371
▁dr	-4372
ai	-4373
▁filesystem	-4374
▁stri	-4375
▁details	-4376
ighb	-4377
iness	-4378
▁mig	-4379
▁ont	-4380
supplier	-4381
▁members	-4382
▁hostname	-4383
▁getend	-4384
▁following	-4385
week	-4386
aml	-4387
elink	-4388
▁cn	-4389
conversion	-4390
etypes	-4391
my	-4392
());	-4393
ggest	-4394
▁printwriter	-4395
relse	-4396
▁jsontoken	-4397
▁being	-4398
▁persistent	-4399
facet	-4400
▁getitem	-4401
▁copyof	-4402
▁servletcontext	-4403
▁si	-4404
▁hast	-4405
▁istrace	-4406
ivate	-4407
▁every	-4408
▁commerc	-4409
utes	-4410
atest	-4411
uit	-4412
▁maven	-4413
▁orelse	-4414
gs	-4415
▁ioe	-4416
clause	-4417
ascript	-4418
bitmap	-4419
▁rc	-4420
▁setter	-4421
▁relationship	-4422
_41	-4423
posed	-4424
▁ce	-4425
▁transfer	-4426
generated	-4427
▁serialization	-4428
utput	-4429
ases	-4430
▁permissions	-4431
▁times	-4432
▁within	-4433
▁how	-4434
▁repe	-4435
umb	-4436
▁getcan	-4437
▁orig	-4438
▁pur	-4439
shared	-4440
cached	-4441
▁isin	-4442
tasks	-4443
imeout	-4444
catalog	-4445
▁loaded	-4446
ili	-4447
mirror	-4448
▁sink	-4449
▁sources	-4450
keeper	-4451
▁getmodel	-4452
▁isdirectory	-4453
▁mal	-4454
parsing	-4455
dn	-4456
delegate	-4457
abstract	-4458
worker	-4459
ven	-4460
▁filtered	-4461
bro	-4462
...""	-4463
▁findviewbyid	-4464
gre	-4465
liter	-4466
▁records	-4467
▁getmetadata	-4468
ops	-4469
▁parsing	-4470
▁mac	-4471
deployment	-4472
amount	-4473
▁effect	-4474
▁mith	-4475
come	-4476
note	-4477
▁classnode	-4478
99	-4479
▁expect	-4480
▁apache	-4481
va	-4482
▁impl	-4483
▁such	-4484
▁mis	-4485
▁feat	-4486
ilability	-4487
▁cop	-4488
suffix	-4489
▁actor	-4490
tokens	-4491
▁tm	-4492
original	-4493
▁""\""""	-4494
▁getproperties	-4495
▁segments	-4496
cols	-4497
▁doublevalue	-4498
▁packagename	-4499
▁media	-4500
▁getquery	-4501
▁embedded	-4502
adds	-4503
records	-4504
▁caller	-4505
▁fieldtype	-4506
▁capacity	-4507
▁pdf	-4508
▁typ	-4509
▁signing	-4510
▁getlogger	-4511
direction	-4512
▁decoder	-4513
feray	-4514
adient	-4515
▁measure	-4516
adcast	-4517
coordin	-4518
schedule	-4519
▁getcanonical	-4520
route	-4521
▁writestring	-4522
▁getparameters	-4523
▁cfg	-4524
hashset	-4525
lifecycle	-4526
intent	-4527
edefinition	-4528
▁assignment	-4529
checker	-4530
▁objectmapper	-4531
termin	-4532
_42	-4533
alf	-4534
pendent	-4535
modifiable	-4536
▁addchild	-4537
entities	-4538
▁creates	-4539
▁serializable	-4540
creator	-4541
grid	-4542
▁reverse	-4543
ose	-4544
balancer	-4545
▁sig	-4546
units	-4547
payment	-4548
executioncontext	-4549
));	-4550
▁localname	-4551
▁grpc	-4552
threshold	-4553
runner	-4554
▁tod	-4555
▁iout	-4556
▁adjust	-4557
asset	-4558
▁determine	-4559
▁getproject	-4560
eturn	-4561
▁finder	-4562
aname	-4563
▁ffdc	-4564
▁these	-4565
▁mong	-4566
using	-4567
▁combin	-4568
checks	-4569
▁getattributes	-4570
▁receiver	-4571
▁composite	-4572
compiler	-4573
▁registration	-4574
▁mater	-4575
dimension	-4576
▁mean	-4577
▁lib	-4578
▁encrypt	-4579
▁replacement	-4580
master	-4581
▁optim	-4582
▁special	-4583
▁liferay	-4584
▁jaxbelement	-4585
ycler	-4586
icomponent	-4587
509	-4588
skip	-4589
home	-4590
execute	-4591
13	-4592
▁vm	-4593
segments	-4594
▁asn	-4595
▁er	-4596
▁getst	-4597
egr	-4598
encoded	-4599
▁needs	-4600
▁starting	-4601
▁compose	-4602
emo	-4603
typer	-4604
completed	-4605
▁fromstring	-4606
▁readint	-4607
▁vide	-4608
luster	-4609
▁getview	-4610
typename	-4611
/{	-4612
andidates	-4613
ingexception	-4614
jax	-4615
▁sentence	-4616
extractor	-4617
andget	-4618
handlers	-4619
▁processed	-4620
▁checkstate	-4621
▁rt	-4622
▁tojson	-4623
dirs	-4624
roovy	-4625
▁mail	-4626
interfaces	-4627
states	-4628
15	-4629
push	-4630
rong	-4631
ptype	-4632
▁pi	-4633
▁gettable	-4634
unexpected	-4635
▁ir	-4636
▁taskid	-4637
▁produ	-4638
▁paralle	-4639
poption	-4640
inality	-4641
instruction	-4642
▁initialized	-4643
▁resourcename	-4644
▁yet	-4645
pexception	-4646
ilt	-4647
▁calling	-4648
management	-4649
behavior	-4650
amer	-4651
▁bufferedimage	-4652
acc	-4653
ctype	-4654
▁users	-4655
measure	-4656
lated	-4657
lying	-4658
orizontal	-4659
▁least	-4660
▁iatom	-4661
▁aws	-4662
▁flatmap	-4663
izes	-4664
emet	-4665
timer	-4666
▁requires	-4667
▁errorcode	-4668
▁readline	-4669
▁signal	-4670
▁polygon	-4671
instanc	-4672
▁bel	-4673
14	-4674
▁your	-4675
ifabsent	-4676
transport	-4677
▁islog	-4678
▁getserver	-4679
renderer	-4680
matches	-4681
▁uses	-4682
equal	-4683
:2	-4684
▁newline	-4685
orld	-4686
▁pixel	-4687
▁deleter	-4688
validate	-4689
configs	-4690
pixel	-4691
><	-4692
ness	-4693
ential	-4694
▁timezone	-4695
▁csv	-4696
▁train	-4697
▁commerceorder	-4698
lict	-4699
▁reser	-4700
▁soap	-4701
▁serialized	-4702
roles	-4703
▁writeobject	-4704
▁jms	-4705
▁had	-4706
▁1.	-4707
zero	-4708
abletype	-4709
▁valuetype	-4710
▁binder	-4711
▁convertto	-4712
▁phase	-4713
resolved	-4714
▁pid	-4715
▁known	-4716
▁merged	-4717
asures	-4718
▁getraw	-4719
remote	-4720
license	-4721
▁getnum	-4722
stmt	-4723
▁getpre	-4724
specification	-4725
▁datastore	-4726
association	-4727
classpath	-4728
css	-4729
accessible	-4730
expressions	-4731
▁shift	-4732
▁rollback	-4733
▁getjob	-4734
▁const	-4735
▁lifecycle	-4736
mappings	-4737
install	-4738
▁what	-4739
chart	-4740
▁""0""	-4741
▁getnod	-4742
oper	-4743
▁stringutil	-4744
▁scheme	-4745
pi	-4746
dateformat	-4747
▁getsize	-4748
▁entities	-4749
todo	-4750
▁take	-4751
filepath	-4752
fieldname	-4753
▁tor	-4754
▁getsuper	-4755
percent	-4756
later	-4757
▁'{}	-4758
▁""&	-4759
utures	-4760
▁qpath	-4761
▁outer	-4762
comparison	-4763
tracking	-4764
riction	-4765
▁getnumber	-4766
ough	-4767
▁inv	-4768
cm	-4769
queu	-4770
▁vec	-4771
▁dbsession	-4772
ategories	-4773
ading	-4774
authentic	-4775
coming	-4776
ableconcept	-4777
atio	-4778
emessage	-4779
ientation	-4780
calcul	-4781
▁setstatus	-4782
ingclass	-4783
▁clientid	-4784
▁eventtype	-4785
▁apiexception	-4786
prot	-4787
subject	-4788
ca	-4789
enew	-4790
hist	-4791
break	-4792
▁calls	-4793
▁launch	-4794
quare	-4795
metadat	-4796
▁fre	-4797
▁background	-4798
dm	-4799
ativ	-4800
▁delimiter	-4801
▁getinputstream	-4802
▁library	-4803
inputs	-4804
▁matched	-4805
▁might	-4806
servicename	-4807
▁obtain	-4808
components	-4809
clicklistener	-4810
ivid	-4811
country	-4812
escription	-4813
packet	-4814
override	-4815
ensitive	-4816
plat	-4817
users	-4818
padding	-4819
▁once	-4820
criteria	-4821
cas	-4822
ending	-4823
pex	-4824
▁inetaddress	-4825
▁drawable	-4826
▁unexpected	-4827
30	-4828
▁preference	-4829
parseexception	-4830
▁getdocument	-4831
ierarchy	-4832
vals	-4833
retrie	-4834
discount	-4835
indexes	-4836
▁disable	-4837
▁ldap	-4838
▁did	-4839
uff	-4840
shift	-4841
▁too	-4842
atas	-4843
▁latest	-4844
▁program	-4845
▁gson	-4846
urface	-4847
▁decor	-4848
blocks	-4849
▁converted	-4850
▁getoutput	-4851
enotification	-4852
▁""{	-4853
▁mock	-4854
▁observer	-4855
▁statistics	-4856
slot	-4857
▁databas	-4858
▁startindex	-4859
cf	-4860
ically	-4861
▁cmsresource	-4862
▁setid	-4863
▁cipher	-4864
2""	-4865
poch	-4866
injection	-4867
ingle	-4868
▁indi	-4869
done	-4870
▁explicit	-4871
cret	-4872
▁contact	-4873
▁gau	-4874
▁reject	-4875
▁oncreate	-4876
▁getevent	-4877
▁unmodifiable	-4878
▁feed	-4879
addresses	-4880
audit	-4881
untime	-4882
▁simpl	-4883
▁mk	-4884
whitespace	-4885
cookie	-4886
▁subscribe	-4887
▁oid	-4888
▁longvalue	-4889
▁subscriber	-4890
licies	-4891
rase	-4892
▁writeto	-4893
>\	-4894
▁jobid	-4895
▁readobject	-4896
▁gettoken	-4897
avigation	-4898
eregistry	-4899
▁newarraylist	-4900
▁dump	-4901
▁ordinal	-4902
▁currently	-4903
▁thrown	-4904
mac	-4905
▁inc	-4906
▁isnullorempty	-4907
▁exact	-4908
▁rectangle	-4909
completion	-4910
illing	-4911
▁commandline	-4912
▁conver	-4913
▁contracts	-4914
▁wildcard	-4915
istributed	-4916
livery	-4917
cert	-4918
▁eof	-4919
▁terms	-4920
▁graphics	-4921
▁gete	-4922
▁scroll	-4923
▁bytestring	-4924
unsigned	-4925
▁allocate	-4926
▁geturi	-4927
▁scheduled	-4928
▁getlist	-4929
▁gray	-4930
▁""-""	-4931
unic	-4932
google	-4933
▁padding	-4934
animation	-4935
variant	-4936
messagev	-4937
▁trac	-4938
▁geo	-4939
oned	-4940
bose	-4941
econtain	-4942
launch	-4943
beans	-4944
▁indexed	-4945
dicates	-4946
rore	-4947
deploy	-4948
scount	-4949
▁less	-4950
library	-4951
analysis	-4952
▁finished	-4953
mater	-4954
▁fr	-4955
loaded	-4956
▁working	-4957
1.	-4958
▁credential	-4959
dk	-4960
staxunmarshaller	-4961
▁disabled	-4962
▁saxexception	-4963
creation	-4964
▁isloggable	-4965
actual	-4966
urlconnection	-4967
ention	-4968
▁40	-4969
▁publisher	-4970
▁arch	-4971
stub	-4972
▁mb	-4973
▁pkg	-4974
src	-4975
▁occur	-4976
threads	-4977
▁most	-4978
anne	-4979
▁atlas	-4980
cc	-4981
▁addon	-4982
▁cover	-4983
etarget	-4984
▁pagecontext	-4985
visit	-4986
managed	-4987
atabase	-4988
ww	-4989
▁bp	-4990
▁actions	-4991
▁projection	-4992
bad	-4993
uses	-4994
▁jedis	-4995
shard	-4996
▁replic	-4997
▁30	-4998
▁superclass	-4999
clean	-5000
bytebuffer	-5001
▁writable	-5002
▁comparable	-5003
▁15	-5004
=%	-5005
dist	-5006
▁castto	-5007
▁keyword	-5008
refresh	-5009
strings	-5010
▁getal	-5011
▁cx	-5012
cludes	-5013
▁leg	-5014
▁still	-5015
closing	-5016
etim	-5017
yntaxexception	-5018
▁blocks	-5019
none	-5020
finished	-5021
deser	-5022
links	-5023
▁means	-5024
▁aggregation	-5025
riterion	-5026
usersegment	-5027
producer	-5028
▁internalxbase	-5029
side	-5030
artbe	-5031
33	-5032
warning	-5033
▁isblank	-5034
▁bond	-5035
▁disk	-5036
▁stub	-5037
▁rate	-5038
amodel	-5039
▁checked	-5040
▁\""""	-5041
way	-5042
limpl	-5043
▁mozuclient	-5044
▁asstring	-5045
▁flu	-5046
apply	-5047
▁thrift	-5048
▁updates	-5049
▁bson	-5050
▁getrow	-5051
▁radius	-5052
▁seta	-5053
ilation	-5054
▁translate	-5055
columnname	-5056
▁threshold	-5057
▁typeelement	-5058
▁requests	-5059
lapsed	-5060
health	-5061
▁rx	-5062
▁producer	-5063
normal	-5064
▁negative	-5065
▁abort	-5066
▁problem	-5067
foc	-5068
▁partial	-5069
▁framework	-5070
ookies	-5071
war	-5072
▁stacktrace	-5073
▁img	-5074
▁dependencies	-5075
ithub	-5076
strument	-5077
ving	-5078
▁ens	-5079
▁stringwriter	-5080
alled	-5081
lename	-5082
▁extensions	-5083
▁setmax	-5084
qualifiedname	-5085
ony	-5086
reset	-5087
▁getprocess	-5088
urnal	-5089
▁runtim	-5090
flush	-5091
atable	-5092
redirect	-5093
▁altern	-5094
▁metadat	-5095
bb	-5096
▁union	-5097
etermin	-5098
lig	-5099
▁roles	-5100
▁their	-5101
▁marshal	-5102
agram	-5103
+""	-5104
construct	-5105
▁instruction	-5106
indicator	-5107
▁maps	-5108
keyword	-5109
peer	-5110
include	-5111
perform	-5112
▁mimetype	-5113
_43	-5114
ereg	-5115
hint	-5116
▁own	-5117
▁assertion	-5118
▁reply	-5119
▁columnindex	-5120
▁addto	-5121
jor	-5122
▁et	-5123
▁deleg	-5124
setter	-5125
dispatcher	-5126
fort	-5127
eme	-5128
vpc	-5129
▁closure	-5130
emod	-5131
▁cleanup	-5132
▁binds	-5133
loading	-5134
clazz	-5135
▁seek	-5136
follow	-5137
chan	-5138
▁malformed	-5139
anos	-5140
▁11	-5141
▁interfaces	-5142
ding	-5143
without	-5144
▁minimum	-5145
▁declaration	-5146
inct	-5147
ipient	-5148
▁help	-5149
▁getsigning	-5150
▁maybe	-5151
2.	-5152
icle	-5153
▁rhs	-5154
▁outpos	-5155
__0	-5156
icipant	-5157
▁workspace	-5158
▁creater	-5159
▁addattribute	-5160
aving	-5161
▁uris	-5162
unsupported	-5163
▁recurs	-5164
scale	-5165
▁comb	-5166
▁backend	-5167
urer	-5168
rent	-5169
▁intern	-5170
▁securitycontext	-5171
▁coded	-5172
▁getex	-5173
▁summary	-5174
racket	-5175
▁sdkinternallist	-5176
▁qualifier	-5177
sth	-5178
▁propag	-5179
='	-5180
dict	-5181
indent	-5182
contact	-5183
ething	-5184
uml	-5185
▁getaws	-5186
yy	-5187
▁grant	-5188
specific	-5189
▁correspon	-5190
▁percent	-5191
aggregation	-5192
trigger	-5193
socketaddress	-5194
jdbc	-5195
▁await	-5196
cut	-5197
▁greater	-5198
ctories	-5199
preferences	-5200
▁via	-5201
▁indices	-5202
quiet	-5203
firm	-5204
econtainer	-5205
regex	-5206
▁chron	-5207
▁black	-5208
▁indexes	-5209
▁checkpoint	-5210
▁were	-5211
vileged	-5212
valuepair	-5213
▁errormessage	-5214
▁pin	-5215
▁dto	-5216
qname	-5217
▁lef	-5218
▁inputs	-5219
tracker	-5220
▁related	-5221
requests	-5222
lelement	-5223
▁getbean	-5224
ioexception	-5225
hour	-5226
▁getpro	-5227
▁getbase	-5228
illegal	-5229
td	-5230
▁entitymanager	-5231
mail	-5232
▁jp	-5233
▁duplicate	-5234
phase	-5235
▁coordinates	-5236
entype	-5237
roke	-5238
▁""#	-5239
▁0.5	-5240
▁creation	-5241
▁conversation	-5242
▁lhs	-5243
atory	-5244
▁df	-5245
▁threads	-5246
▁setdefault	-5247
dom	-5248
erver	-5249
▁capt	-5250
▁endevent	-5251
▁oldvalue	-5252
plib	-5253
ematch	-5254
34	-5255
plain	-5256
▁isnotempty	-5257
▁injector	-5258
ras	-5259
iment	-5260
▁association	-5261
▁reading	-5262
▁health	-5263
basic	-5264
versal	-5265
▁due	-5266
anode	-5267
▁14	-5268
▁zi	-5269
liver	-5270
▁extractor	-5271
targetexception	-5272
abu	-5273
▁jsp	-5274
ethrow	-5275
needed	-5276
urls	-5277
lon	-5278
astype	-5279
received	-5280
eg	-5281
▁normalize	-5282
▁jsonexception	-5283
high	-5284
▁car	-5285
utilities	-5286
deleted	-5287
▁executable	-5288
iases	-5289
enable	-5290
stitution	-5291
▁currencypair	-5292
emode	-5293
▁quote	-5294
▁urls	-5295
▁afplib	-5296
tre	-5297
grade	-5298
yclerview	-5299
▁uicomponent	-5300
esponse	-5301
▁opencms	-5302
valent	-5303
mgr	-5304
enerator	-5305
save	-5306
▁procedure	-5307
▁itype	-5308
etra	-5309
▁""@	-5310
aptor	-5311
▁sdkinternalapi	-5312
▁severe	-5313
19	-5314
ynode	-5315
availability	-5316
▁hi	-5317
▁writeattribute	-5318
ather	-5319
connections	-5320
▁sheet	-5321
executetime	-5322
dependencies	-5323
tokenizer	-5324
▁datal	-5325
lp	-5326
2_	-5327
▁play	-5328
pagelink	-5329
spe	-5330
qualifier	-5331
▁consume	-5332
ital	-5333
aught	-5334
▁addproperty	-5335
urable	-5336
sider	-5337
ecommand	-5338
▁elk	-5339
▁afplibpackage	-5340
▁cli	-5341
▁ais	-5342
▁circ	-5343
▁mojoexecution	-5344
ridge	-5345
▁mapt	-5346
▁facet	-5347
▁den	-5348
transition	-5349
▁compat	-5350
▁underlying	-5351
▁included	-5352
▁setstring	-5353
()""	-5354
matching	-5355
rawtypes	-5356
▁getcode	-5357
▁cases	-5358
workflow	-5359
agnostic	-5360
▁jmx	-5361
▁creating	-5362
credential	-5363
▁servicefuture	-5364
dot	-5365
where	-5366
acl	-5367
▁getawsresponse	-5368
▁repla	-5369
▁seen	-5370
▁supplied	-5371
▁hasmore	-5372
compatible	-5373
▁getresources	-5374
bottom	-5375
▁expi	-5376
outof	-5377
▁spe	-5378
drawable	-5379
sfor	-5380
▁buff	-5381
▁agg	-5382
▁advancedconfig	-5383
▁getschem	-5384
▁containing	-5385
▁reduce	-5386
▁consist	-5387
▁seed	-5388
por	-5389
▁updateresource	-5390
reate	-5391
ulename	-5392
marshal	-5393
instant	-5394
sclient	-5395
▁checks	-5396
www	-5397
uag	-5398
httprequest	-5399
https	-5400
▁ordered	-5401
▁isnotblank	-5402
▁distribution	-5403
platform	-5404
matched	-5405
ete	-5406
uspend	-5407
indices	-5408
▁*=	-5409
updates	-5410
▁material	-5411
▁streamid	-5412
▁200	-5413
▁""}""	-5414
emon	-5415
▁linear	-5416
▁unwrap	-5417
math	-5418
▁includes	-5419
▁vars	-5420
pet	-5421
▁serial	-5422
▁histor	-5423
ashboard	-5424
▁complex	-5425
▁getmap	-5426
▁annotationtype	-5427
▁gra	-5428
▁necessary	-5429
▁getattribut	-5430
▁getclassname	-5431
))	-5432
▁semant	-5433
▁waiting	-5434
lasticsearch	-5435
▁specify	-5436
▁determin	-5437
runtimeexception	-5438
▁reflect	-5439
▁getgroup	-5440
dget	-5441
download	-5442
antity	-5443
etemplate	-5444
▁getactivity	-5445
fre	-5446
▁60	-5447
▁sys	-5448
gl	-5449
disk	-5450
pages	-5451
▁commands	-5452
▁plus	-5453
tuple	-5454
versions	-5455
exit	-5456
▁numeric	-5457
▁decl	-5458
binder	-5459
▁eobject	-5460
▁ioutils	-5461
lator	-5462
▁seton	-5463
▁nextpagelink	-5464
artbeat	-5465
▁even	-5466
▁filenot	-5467
▁requestcontext	-5468
images	-5469
▁decision	-5470
failedexception	-5471
existing	-5472
gistry	-5473
ng	-5474
contin	-5475
▁listen	-5476
▁browser	-5477
▁checksum	-5478
▁getfull	-5479
otime	-5480
mbean	-5481
essag	-5482
▁getprovider	-5483
ityt	-5484
▁syntax	-5485
▁sid	-5486
▁aggregate	-5487
▁accesstoken	-5488
21	-5489
▁clock	-5490
already	-5491
▁positive	-5492
▁fallback	-5493
const	-5494
decor	-5495
pm	-5496
aker	-5497
▁jcr	-5498
itter	-5499
▁rank	-5500
jsp	-5501
dim	-5502
▁canonical	-5503
apo	-5504
methodexception	-5505
▁;"	-5506
remaining	-5507
cmd	-5508
▁week	-5509
edefault	-5510
▁getaddress	-5511
▁responsebody	-5512
',	-5513
▁immutablemap	-5514
ventory	-5515
▁soft	-5516
▁prec	-5517
bs	-5518
▁attributevalue	-5519
▁transformation	-5520
▁ack	-5521
40	-5522
ively	-5523
▁~	-5524
med	-5525
▁beans	-5526
▁tables	-5527
▁som	-5528
▁offer	-5529
▁1024	-5530
require	-5531
▁readable	-5532
tl	-5533
▁jcastype	-5534
▁setrequest	-5535
▁evaluation	-5536
▁face	-5537
iff	-5538
ox	-5539
▁scenar	-5540
▁compression	-5541
▁translation	-5542
▁singular	-5543
disabled	-5544
▁da	-5545
▁side	-5546
▁bindings	-5547
▁populate	-5548
initializer	-5549
▁days	-5550
transformer	-5551
▁edges	-5552
bindings	-5553
xx	-5554
icro	-5555
▁inside	-5556
▁mix	-5557
axiom	-5558
86	-5559
▁detect	-5560
descr	-5561
expand	-5562
▁ste	-5563
ipt	-5564
uccessresponse	-5565
than	-5566
▁commandcontext	-5567
atial	-5568
selement	-5569
edeep	-5570
scanner	-5571
▁pages	-5572
grant	-5573
▁general	-5574
▁lb	-5575
interrupt	-5576
▁getsystem	-5577
▁unregister	-5578
alk	-5579
▁isarray	-5580
▁deploymentunit	-5581
▁""=""	-5582
pull	-5583
▁anch	-5584
▁spring	-5585
▁align	-5586
▁addlistener	-5587
▁ring	-5588
pricelist	-5589
▁area	-5590
▁jcas	-5591
synchron	-5592
▁bal	-5593
ingbox	-5594
▁va	-5595
▁expiration	-5596
▁createresponse	-5597
rorexception	-5598
panyid	-5599
▁messaged	-5600
▁representation	-5601
pid	-5602
▁backtracking	-5603
ookeeper	-5604
_44	-5605
semb	-5606
▁acl	-5607
jvm	-5608
asstream	-5609
▁getnamespace	-5610
afk	-5611
▁cos	-5612
distribution	-5613
▁operand	-5614
▁gui	-5615
▁bulk	-5616
▁comparedeep	-5617
blob	-5618
clear	-5619
▁prot	-5620
assand	-5621
grammar	-5622
writable	-5623
edges	-5624
eregistration	-5625
▁lv	-5626
▁connected	-5627
▁docker	-5628
▁closeable	-5629
▁modification	-5630
sset	-5631
▁iteration	-5632
▁getser	-5633
streams	-5634
▁gc	-5635
▁removeall	-5636
shutdown	-5637
lipse	-5638
▁written	-5639
▁[%	-5640
▁portalexception	-5641
1_	-5642
rot	-5643
that	-5644
reads	-5645
extended	-5646
▁dc	-5647
ttuple	-5648
▁dateformat	-5649
▁conditional	-5650
implementation	-5651
cording	-5652
▁proces	-5653
temp	-5654
nowled	-5655
▁temporal	-5656
vide	-5657
alert	-5658
invoke	-5659
▁singletonlist	-5660
dfs	-5661
▁endtime	-5662
lobject	-5663
▁schedul	-5664
▁pretty	-5665
sync	-5666
into	-5667
▁sin	-5668
irect	-5669
▁cachekey	-5670
mix	-5671
changelistener	-5672
▁jm	-5673
leaf	-5674
▁geom	-5675
px	-5676
▁propname	-5677
▁animation	-5678
▁angle	-5679
htable	-5680
reply	-5681
eclient	-5682
ones	-5683
patterns	-5684
feed	-5685
▁initializ	-5686
setype	-5687
▁defin	-5688
readonly	-5689
vr	-5690
digits	-5691
▁getcom	-5692
jobs	-5693
▁proc	-5694
itoring	-5695
▁concept	-5696
▁getdatabase	-5697
▁saf	-5698
▁equi	-5699
▁nodeid	-5700
mis	-5701
▁255	-5702
▁getbundle	-5703
▁subsystem	-5704
leet	-5705
▁eq	-5706
▁beandefinition	-5707
▁dictionary	-5708
acle	-5709
▁dum	-5710
▁gettransaction	-5711
▁printf	-5712
consist	-5713
▁images	-5714
▁modifiers	-5715
▁sslcontext	-5716
shipping	-5717
aware	-5718
orted	-5719
eresolver	-5720
▁benchmark	-5721
modules	-5722
eroot	-5723
plus	-5724
▁pub	-5725
▁targetclass	-5726
band	-5727
▁video	-5728
▁getcolor	-5729
written	-5730
▁stag	-5731
▁ofnullable	-5732
▁ul	-5733
irexception	-5734
sorted	-5735
▁histogram	-5736
▁instantiate	-5737
▁std	-5738
▁swap	-5739
verage	-5740
▁later	-5741
odb	-5742
▁mono	-5743
▁bi	-5744
▁neighb	-5745
force	-5746
models	-5747
removed	-5748
amap	-5749
pector	-5750
userid	-5751
itro	-5752
ecutor	-5753
apiexception	-5754
posal	-5755
material	-5756
quote	-5757
ividual	-5758
checksum	-5759
▁references	-5760
▁dep	-5761
igest	-5762
▁repo	-5763
▁specification	-5764
▁dx	-5765
cost	-5766
▁interpr	-5767
▁seg	-5768
▁dro	-5769
counts	-5770
▁getdat	-5771
vec	-5772
rpc	-5773
processed	-5774
▁fhirexception	-5775
▁isenabled	-5776
▁dao	-5777
▁zk	-5778
functions	-5779
▁envelope	-5780
▁normalized	-5781
simple	-5782
switch	-5783
alpha	-5784
▁automat	-5785
▁getform	-5786
amel	-5787
▁getcurrenttoken	-5788
▁getw	-5789
bc	-5790
providers	-5791
modification	-5792
▁servicecontext	-5793
dle	-5794
ignature	-5795
negative	-5796
possible	-5797
=\""""	-5798
▁claim	-5799
going	-5800
▁nextelement	-5801
▁ibm	-5802
httpclient	-5803
▁appen	-5804
▁getmodifiers	-5805
▁realm	-5806
▁expressions	-5807
inger	-5808
adoc	-5809
▁hit	-5810
▁receive	-5811
eclar	-5812
▁groupname	-5813
▁txn	-5814
actor	-5815
ale	-5816
▁getexpression	-5817
reserv	-5818
relationship	-5819
nable	-5820
▁groovy	-5821
named	-5822
chararray	-5823
fr	-5824
▁statuscode	-5825
pecification	-5826
erange	-5827
lier	-5828
▁storag	-5829
▁comparison	-5830
▁lastmodified	-5831
▁absolute	-5832
istant	-5833
▁modules	-5834
resultset	-5835
generate	-5836
▁getposition	-5837
ula	-5838
quency	-5839
▁country	-5840
try	-5841
ooled	-5842
▁tick	-5843
▁consider	-5844
▁""_""	-5845
▁exclude	-5846
▁formatted	-5847
diction	-5848
arl	-5849
▁dof	-5850
▁gauge	-5851
▁getto	-5852
23	-5853
▁apiresponse	-5854
▁getlabel	-5855
▁parselong	-5856
encryption	-5857
methodname	-5858
▁minute	-5859
▁getcommand	-5860
▁getsuperclass	-5861
park	-5862
rack	-5863
▁getidentifier	-5864
▁baos	-5865
atives	-5866
erecord	-5867
▁dialect	-5868
▁oper	-5869
exchange	-5870
-""	-5871
oto	-5872
elation	-5873
▁issues	-5874
▁nb	-5875
drop	-5876
▁unset	-5877
atore	-5878
candidate	-5879
85	-5880
site	-5881
delta	-5882
modifier	-5883
ysical	-5884
ield	-5885
▁setheader	-5886
▁mouse	-5887
▁prevent	-5888
persistent	-5889
▁readonly	-5890
boss	-5891
primitiv	-5892
▁provide	-5893
▁tokenizer	-5894
▁getinput	-5895
▁dm	-5896
▁getrecord	-5897
focus	-5898
ulation	-5899
trust	-5900
▁rgb	-5901
▁gateway	-5902
▁targettype	-5903
▁wrong	-5904
▁inherit	-5905
▁javatype	-5906
▁layoutparams	-5907
▁many	-5908
▁sdvariable	-5909
▁istr	-5910
scal	-5911
▁iso	-5912
dro	-5913
latch	-5914
nn	-5915
▁futures	-5916
stable	-5917
ceeded	-5918
ordered	-5919
▁countdown	-5920
▁customer	-5921
kit	-5922
▁unmarshal	-5923
▁pathaddress	-5924
chedule	-5925
▁waitfor	-5926
literator	-5927
phrase	-5928
▁localdate	-5929
▁getselected	-5930
▁processinstance	-5931
▁behavior	-5932
60	-5933
_45	-5934
▁bc	-5935
▁delt	-5936
▁typer	-5937
▁addelement	-5938
></	-5939
delimiter	-5940
▁templat	-5941
▁decom	-5942
▁millis	-5943
▁qualifiedname	-5944
▁httpstatus	-5945
ech	-5946
outofbounds	-5947
▁norm	-5948
▁fromindex	-5949
gate	-5950
[""	-5951
rigger	-5952
machine	-5953
▁blocking	-5954
margin	-5955
▁connections	-5956
▁define	-5957
▁opcode	-5958
reporter	-5959
63	-5960
terms	-5961
▁fieldvalue	-5962
▁__	-5963
▁mutation	-5964
):	-5965
▁getreturntype	-5966
prob	-5967
▁candidates	-5968
0}	-5969
▁difference	-5970
sevent	-5971
▁getlocalname	-5972
increment	-5973
vs	-5974
(),	-5975
▁beta	-5976
▁dmatrix	-5977
▁nitro	-5978
optioncall	-5979
references	-5980
▁fileutils	-5981
eread	-5982
registered	-5983
fn	-5984
onenumber	-5985
conver	-5986
▁severity	-5987
▁loading	-5988
▁fact	-5989
▁textview	-5990
▁pat	-5991
cope	-5992
sha	-5993
quietly	-5994
▁dispatcher	-5995
▁webapp	-5996
▁multipart	-5997
▁returnvalue	-5998
stam	-5999
▁az	-6000
▁ft	-6001
extract	-6002
▁handling	-6003
portlet	-6004
▁channels	-6005
▁ear	-6006
▁pow	-6007
former	-6008
sessionid	-6009
presentation	-6010
shake	-6011
atis	-6012
ilar	-6013
▁getfrom	-6014
▁getaction	-6015
▁owl	-6016
****************	-6017
▁casfeat	-6018
▁square	-6019
▁getbody	-6020
▁pagesize	-6021
▁getoffset	-6022
▁zoom	-6023
esting	-6024
▁scalar	-6025
▁sa	-6026
▁servername	-6027
grouprequest	-6028
▁ep	-6029
linked	-6030
▁renderer	-6031
////////	-6032
▁decoded	-6033
lv	-6034
▁getcount	-6035
erepository	-6036
▁strict	-6037
▁getvalues	-6038
▁remain	-6039
ecomponent	-6040
packages	-6041
▁getdate	-6042
authorized	-6043
▁runner	-6044
▁dimensions	-6045
▁getun	-6046
alive	-6047
▁fromjson	-6048
▁iterate	-6049
▁""(""	-6050
epackage	-6051
▁toindex	-6052
▁propertytype	-6053
▁according	-6054
definitionid	-6055
eventlistener	-6056
des	-6057
sib	-6058
gu	-6059
{}""	-6060
[]	-6061
comb	-6062
policies	-6063
withannotations	-6064
complex	-6065
▁13	-6066
▁setdescription	-6067
▁immediate	-6068
▁keyvalue	-6069
ems	-6070
contents	-6071
▁parallel	-6072
iph	-6073
ensity	-6074
▁trail	-6075
destroy	-6076
prev	-6077
lose	-6078
▁versions	-6079
▁cols	-6080
▁assum	-6081
▁getshort	-6082
▁amazonweb	-6083
multimap	-6084
▁ov	-6085
positions	-6086
▁corresponding	-6087
adapt	-6088
estart	-6089
opic	-6090
▁boundary	-6091
}/	-6092
▁light	-6093
dp	-6094
▁getremot	-6095
statements	-6096
▁rad	-6097
▁heap	-6098
bet	-6099
ontext	-6100
▁shadow	-6101
▁compressed	-6102
views	-6103
quality	-6104
▁restart	-6105
▁art	-6106
▁fhir	-6107
sequenc	-6108
▁dy	-6109
immutable	-6110
▁getfilter	-6111
▁leaf	-6112
release	-6113
ensor	-6114
ocket	-6115
▁resourcetype	-6116
previous	-6117
▁incoming	-6118
xpression	-6119
injector	-6120
buffersize	-6121
▁visibility	-6122
uous	-6123
▁immutableset	-6124
pus	-6125
▁timed	-6126
▁keyspace	-6127
heap	-6128
pear	-6129
▁crypt	-6130
▁series	-6131
▁patterns	-6132
▁temporary	-6133
isk	-6134
▁marshaller	-6135
▁istraceenabled	-6136
▁requestid	-6137
rain	-6138
etransaction	-6139
urator	-6140
ru	-6141
▁cub	-6142
▁links	-6143
▁multip	-6144
▁broadcast	-6145
▁appendable	-6146
ummary	-6147
placement	-6148
▁compound	-6149
▁sur	-6150
▁dns	-6151
▁calc	-6152
asurespec	-6153
▁vertical	-6154
standard	-6155
▁nodename	-6156
▁ls	-6157
eight	-6158
▁constraints	-6159
contenttype	-6160
duplic	-6161
plies	-6162
▁supports	-6163
▁projectid	-6164
▁hasmoreelements	-6165
▁loadclass	-6166
▁functions	-6167
▁ci	-6168
alignment	-6169
encode	-6170
serializ	-6171
▁nextint	-6172
▁aff	-6173
creat	-6174
▁gettablename	-6175
locations	-6176
▁getcluster	-6177
▁unic	-6178
▁defaults	-6179
▁mg	-6180
▁small	-6181
▁click	-6182
▁world	-6183
▁invalidate	-6184
▁setcontext	-6185
▁evt	-6186
▁anchor	-6187
▁getcurren	-6188
ubscription	-6189
▁getservlet	-6190
pentity	-6191
▁directly	-6192
▁ranges	-6193
when	-6194
serve	-6195
▁correlation	-6196
▁ssh	-6197
elem	-6198
▁exc	-6199
▁incre	-6200
▁cat	-6201
▁getsql	-6202
▁reserved	-6203
▁alph	-6204
letype	-6205
ines	-6206
bern	-6207
sect	-6208
▁inode	-6209
hance	-6210
ptions	-6211
▁getcache	-6212
valuetype	-6213
▁td	-6214
▁cross	-6215
▁internalget	-6216
▁gethttp	-6217
bootstrap	-6218
:2:	-6219
▁writebyte	-6220
random	-6221
▁nanotime	-6222
filesystem	-6223
▁conditions	-6224
▁withpayload	-6225
locked	-6226
eline	-6227
commands	-6228
receiver	-6229
abet	-6230
ks	-6231
ules	-6232
help	-6233
▁cacheentry	-6234
▁queryparam	-6235
ird	-6236
▁san	-6237
▁stacksize	-6238
▁statements	-6239
▁opcodes	-6240
▁createprotocol	-6241
▁viewgroup	-6242
▁hook	-6243
radius	-6244
▁""--	-6245
primarykey	-6246
decision	-6247
authority	-6248
▁mappings	-6249
▁getusername	-6250
▁setcolor	-6251
▁19	-6252
econtent	-6253
())	-6254
▁ready	-6255
ttle	-6256
▁httpheaders	-6257
promise	-6258
▁half	-6259
writes	-6260
▁precision	-6261
▁band	-6262
sq	-6263
see	-6264
▁dn	-6265
▁described	-6266
bond	-6267
fast	-6268
▁gridbag	-6269
▁setaccessible	-6270
▁pg	-6271
▁resolution	-6272
▁streams	-6273
choo	-6274
plit	-6275
sservice	-6276
▁volt	-6277
packagename	-6278
▁combined	-6279
like	-6280
publisher	-6281
▁appid	-6282
dictionary	-6283
▁protocolrequest	-6284
▁lt	-6285
sv	-6286
soap	-6287
ibm	-6288
▁klass	-6289
streamings	-6290
pb	-6291
_46	-6292
akes	-6293
▁logical	-6294
▁dbc	-6295
outer	-6296
▁propertyvalue	-6297
▁settime	-6298
▁jarfile	-6299
inv	-6300
▁dead	-6301
▁city	-6302
▁indic	-6303
backend	-6304
sty	-6305
▁ic	-6306
▁intros	-6307
zer	-6308
storag	-6309
▁nodetype	-6310
75	-6311
▁adding	-6312
localservice	-6313
▁getdouble	-6314
▁replication	-6315
▁checkfor	-6316
▁withhas	-6317
▁alignment	-6318
beandefinition	-6319
▁closing	-6320
altern	-6321
▁jsonoperation	-6322
▁instanc	-6323
exml	-6324
▁mot	-6325
▁withpayloadjson	-6326
sby	-6327
optim	-6328
characters	-6329
▁fieldaccess	-6330
fx	-6331
▁queries	-6332
uffix	-6333
▁"";""	-6334
envelope	-6335
▁setc	-6336
▁transactional	-6337
▁proper	-6338
▁ttl	-6339
▁getelements	-6340
les	-6341
▁repeat	-6342
▁grammaraccess	-6343
align	-6344
▁querybuilder	-6345
menuitem	-6346
▁gradient	-6347
descriptors	-6348
recogn	-6349
▁localvar	-6350
▁remoteexception	-6351
stacksize	-6352
resourcetype	-6353
eno	-6354
▁initi	-6355
▁getparam	-6356
▁getschema	-6357
▁elementname	-6358
▁sha	-6359
analyz	-6360
▁choo	-6361
boot	-6362
▁servletrequest	-6363
▁getdb	-6364
▁getstyle	-6365
▁jwt	-6366
▁adds	-6367
clas	-6368
▁isannotation	-6369
▁mov	-6370
inten	-6371
▁ctxt	-6372
▁digit	-6373
ethread	-6374
▁stringvalue	-6375
▁getentry	-6376
▁sqrt	-6377
▁getdisplay	-6378
ewidth	-6379
hostname	-6380
▁epackage	-6381
▁putint	-6382
▁ordering	-6383
configurations	-6384
additional	-6385
▁separ	-6386
▁querystring	-6387
onymo	-6388
▁treemap	-6389
▁fl	-6390
aries	-6391
hints	-6392
▁cost	-6393
volume	-6394
▁ta	-6395
▁mkdirs	-6396
▁actually	-6397
operand	-6398
sources	-6399
▁migration	-6400
▁reporterror	-6401
ium	-6402
▁ops	-6403
▁ticket	-6404
▁getstatuscode	-6405
▁getleft	-6406
wildcard	-6407
rad	-6408
▁getch	-6409
▁enclosing	-6410
▁xmlelement	-6411
merge	-6412
▁[{}]	-6413
overrid	-6414
replic	-6415
▁routing	-6416
errormessage	-6417
▁cmp	-6418
_1_0	-6419
lists	-6420
agraph	-6421
certific	-6422
▁isend	-6423
▁getwork	-6424
most	-6425
checkpoint	-6426
mpt	-6427
▁integr	-6428
▁minutes	-6429
▁linkedhashset	-6430
tod	-6431
ssib	-6432
▁abo	-6433
▁ans	-6434
▁built	-6435
▁suggest	-6436
▁lastcomparison	-6437
▁py	-6438
▁works	-6439
▁pb	-6440
▁pad	-6441
▁sf	-6442
compressed	-6443
▁appends	-6444
▁mf	-6445
▁uid	-6446
attrs	-6447
▁18	-6448
▁unsafe	-6449
subscribe	-6450
aved	-6451
▁parametername	-6452
edic	-6453
placeholder	-6454
25	-6455
ocity	-6456
contains	-6457
▁encounter	-6458
▁gettitle	-6459
;\	-6460
▁rv	-6461
▁book	-6462
▁decre	-6463
assandra	-6464
lativ	-6465
▁desired	-6466
econnection	-6467
▁getfirstchild	-6468
▁tochararray	-6469
▁rol	-6470
apexception	-6471
tablename	-6472
pout	-6473
hidden	-6474
uer	-6475
urlexception	-6476
▁parametertypes	-6477
manifest	-6478
▁discard	-6479
▁strip	-6480
▁cnt	-6481
periment	-6482
▁nav	-6483
▁fully	-6484
▁getjson	-6485
▁unchecked	-6486
steps	-6487
tools	-6488
▁terminal	-6489
digit	-6490
▁classinfo	-6491
▁validat	-6492
numeric	-6493
dl	-6494
ascii	-6495
▁docs	-6496
▁hard	-6497
▁getpartition	-6498
▁lon	-6499
starting	-6500
stand	-6501
▁sli	-6502
secure	-6503
▁hashtable	-6504
idle	-6505
▁touri	-6506
▁addcomponent	-6507
▁getexecution	-6508
▁hadoop	-6509
containers	-6510
####	-6511
ifies	-6512
▁swing	-6513
▁reload	-6514
▁white	-6515
vic	-6516
fsp	-6517
▁fe	-6518
▁getowner	-6519
kevent	-6520
▁acquire	-6521
▁objecttype	-6522
atermark	-6523
ingtype	-6524
▁getlocalized	-6525
▁multimap	-6526
expiration	-6527
▁foc	-6528
▁onclick	-6529
claim	-6530
▁verbose	-6531
agic	-6532
onymous	-6533
▁discovery	-6534
78	-6535
dump	-6536
▁paramname	-6537
▁compact	-6538
▁uni	-6539
invok	-6540
▁horizontal	-6541
▁volume	-6542
▁getdimension	-6543
free	-6544
▁accumulator	-6545
native	-6546
▁comma	-6547
▁leader	-6548
▁hastext	-6549
▁slash	-6550
stroke	-6551
_""	-6552
currence	-6553
96	-6554
days	-6555
▁mm	-6556
aresource	-6557
▁queryparams	-6558
▁getatom	-6559
▁readvalue	-6560
ecache	-6561
▁tcp	-6562
tables	-6563
▁pairs	-6564
▁numbers	-6565
expi	-6566
orph	-6567
▁parset	-6568
▁excluded	-6569
priate	-6570
▁pushfollow	-6571
▁setvisible	-6572
eb	-6573
resolution	-6574
▁those	-6575
procedure	-6576
grpc	-6577
annode	-6578
fficient	-6579
▁assertthat	-6580
▁units	-6581
orders	-6582
bot	-6583
▁guid	-6584
multiple	-6585
discovery	-6586
▁odocument	-6587
differ	-6588
▁jn	-6589
aps	-6590
▁tp	-6591
▁getorcreate	-6592
should	-6593
ider	-6594
++	-6595
▁addcontent	-6596
lev	-6597
lout	-6598
picker	-6599
▁comments	-6600
▁codepoint	-6601
▁getconstructor	-6602
▁setparameter	-6603
▁writelock	-6604
▁ie	-6605
▁flo	-6606
▁javaclass	-6607
▁family	-6608
fire	-6609
▁tokentype	-6610
▁returning	-6611
▁quer	-6612
▁models	-6613
▁yaml	-6614
▁getscope	-6615
hand	-6616
setup	-6617
keystore	-6618
▁messageformat	-6619
▁getnew	-6620
▁memo	-6621
uint	-6622
▁well	-6623
▁{},	-6624
▁typemirror	-6625
▁'{}'	-6626
▁hint	-6627
imserver	-6628
▁elementtype	-6629
dependent	-6630
▁writes	-6631
bund	-6632
hashcode	-6633
▁clients	-6634
paralle	-6635
▁handled	-6636
▁kv	-6637
▁recyclerview	-6638
▁fc	-6639
▁near	-6640
plevel	-6641
▁""*""	-6642
edby	-6643
▁secure	-6644
▁compareandset	-6645
edvalue	-6646
framework	-6647
▁wik	-6648
eregion	-6649
▁getchannel	-6650
tw	-6651
▁xs	-6652
riend	-6653
▁decrypt	-6654
compare	-6655
▁produces	-6656
ster	-6657
▁states	-6658
observ	-6659
▁geteclass	-6660
▁pick	-6661
▁apikey	-6662
74	-6663
▁2.0	-6664
checkbox	-6665
▁64	-6666
▁gs	-6667
ares	-6668
bernate	-6669
▁instrument	-6670
tract	-6671
▁treeset	-6672
issues	-6673
256	-6674
browser	-6675
▁above	-6676
▁startelement	-6677
▁printer	-6678
exceptions	-6679
▁pot	-6680
▁something	-6681
csv	-6682
▁isstatic	-6683
▁gettotal	-6684
elementexception	-6685
tor	-6686
ags	-6687
▁kafk	-6688
▁evi	-6689
inbytes	-6690
▁jsonparser	-6691
orth	-6692
joint	-6693
▁cent	-6694
▁getk	-6695
▁gettrans	-6696
▁ix	-6697
▁childnode	-6698
▁gettimestamp	-6699
plugins	-6700
bulk	-6701
▁getright	-6702
▁listfiles	-6703
▁31	-6704
▁tz	-6705
abas	-6706
charsets	-6707
▁referenced	-6708
cri	-6709
▁beg	-6710
▁getasstring	-6711
▁deriv	-6712
wd	-6713
35	-6714
ades	-6715
▁internalxtext	-6716
alleng	-6717
elength	-6718
emetadata	-6719
▁activate	-6720
rok	-6721
▁50	-6722
house	-6723
▁codes	-6724
▁setdata	-6725
▁attrname	-6726
defs	-6727
ewriter	-6728
▁printstream	-6729
repe	-6730
profiles	-6731
hexstring	-6732
▁compress	-6733
▁regular	-6734
maj	-6735
ainfo	-6736
mutation	-6737
▁componenttype	-6738
▁meter	-6739
▁finest	-6740
times	-6741
▁addheader	-6742
▁smb	-6743
▁jsong	-6744
ingerprint	-6745
▁prior	-6746
fraction	-6747
76	-6748
▁generictype	-6749
▁below	-6750
img	-6751
enclo	-6752
▁""?""	-6753
▁counters	-6754
▁codeableconcept	-6755
problem	-6756
▁rotation	-6757
▁getreference	-6758
ecolumn	-6759
intenance	-6760
ism	-6761
▁clusters	-6762
▁jpanel	-6763
appender	-6764
▁dispose	-6765
asource	-6766
linenumber	-6767
hit	-6768
▁business	-6769
▁hold	-6770
▁gt	-6771
▁xa	-6772
bracket	-6773
▁please	-6774
▁solr	-6775
▁""[""	-6776
▁asm	-6777
stm	-6778
▁isinstance	-6779
▁getepackage	-6780
foot	-6781
70	-6782
alloc	-6783
shadow	-6784
▁endindex	-6785
accesstoken	-6786
▁awt	-6787
▁occurred	-6788
ons	-6789
listitem	-6790
▁ifpresent	-6791
▁sep	-6792
▁contained	-6793
,""	-6794
ornull	-6795
ampl	-6796
responsehandler	-6797
websocket	-6798
finity	-6799
_47	-6800
stores	-6801
▁queryresult	-6802
▁replaced	-6803
▁ol	-6804
▁soc	-6805
arant	-6806
▁pull	-6807
overlay	-6808
▁flip	-6809
▁getasjsonobject	-6810
31	-6811
aring	-6812
shi	-6813
prepared	-6814
ience	-6815
▁entityclass	-6816
:1:	-6817
▁rang	-6818
▁getmessag	-6819
▁useragent	-6820
hosts	-6821
paction	-6822
publickey	-6823
na	-6824
converts	-6825
▁nat	-6826
xt	-6827
▁fall	-6828
propert	-6829
▁getfilename	-6830
▁pathparam	-6831
propertyname	-6832
▁appropriate	-6833
amera	-6834
▁composit	-6835
▁packages	-6836
▁ipv	-6837
endor	-6838
▁blank	-6839
▁fraction	-6840
bj	-6841
igher	-6842
balance	-6843
▁keytype	-6844
program	-6845
▁partitions	-6846
ivot	-6847
utility	-6848
▁cmsexception	-6849
realm	-6850
▁attached	-6851
▁recipient	-6852
▁javascript	-6853
__1	-6854
bool	-6855
profil	-6856
expired	-6857
▁digits	-6858
imated	-6859
guid	-6860
▁inline	-6861
▁""1	-6862
▁resourceid	-6863
▁cpoption	-6864
▁addcolumn	-6865
ssh	-6866
▁bool	-6867
▁rev	-6868
▁targets	-6869
▁trunc	-6870
elete	-6871
▁getstream	-6872
▁larg	-6873
responses	-6874
▁appender	-6875
▁navigation	-6876
▁databasename	-6877
▁sla	-6878
gres	-6879
▁clientresponse	-6880
3""	-6881
▁25	-6882
▁batchsize	-6883
▁writelong	-6884
fit	-6885
▁distinct	-6886
tip	-6887
ored	-6888
mapped	-6889
provision	-6890
buffered	-6891
▁training	-6892
▁tagname	-6893
▁getkind	-6894
▁assigned	-6895
▁preferred	-6896
▁orecord	-6897
▁itr	-6898
▁coll	-6899
adjust	-6900
▁trying	-6901
motion	-6902
javascript	-6903
▁txt	-6904
39	-6905
ios	-6906
ounce	-6907
▁hass	-6908
abuilder	-6909
clusters	-6910
▁cachename	-6911
econtrol	-6912
▁provision	-6913
▁deferred	-6914
▁getcommerce	-6915
gml	-6916
▁cy	-6917
▁steps	-6918
▁assertnotnull	-6919
▁crc	-6920
▁journal	-6921
devent	-6922
▁positions	-6923
▁getv	-6924
etree	-6925
fleet	-6926
▁scopes	-6927
▁configs	-6928
▁placeholder	-6929
▁stopped	-6930
▁stringtokenizer	-6931
▁deletes	-6932
car	-6933
qn	-6934
▁escaped	-6935
▁getorder	-6936
serialization	-6937
▁&=	-6938
▁ks	-6939
sembly	-6940
▁starts	-6941
▁getartifact	-6942
ane	-6943
▁rdf	-6944
autoc	-6945
handling	-6946
▁getfields	-6947
related	-6948
▁lambda	-6949
▁getheaders	-6950
▁accessor	-6951
▁addresses	-6952
▁interrupted	-6953
httpresponse	-6954
rouped	-6955
▁getif	-6956
================	-6957
logs	-6958
▁cons	-6959
efault	-6960
scheme	-6961
▁visited	-6962
boundary	-6963
▁vertices	-6964
catch	-6965
▁deep	-6966
sever	-6967
▁against	-6968
▁license	-6969
▁checking	-6970
▁subclass	-6971
▁motion	-6972
▁primitiv	-6973
ynchronous	-6974
▁diagnostic	-6975
▁getaccount	-6976
▁rid	-6977
▁getcon	-6978
▁getdescriptor	-6979
▁jsonelement	-6980
uris	-6981
▁quick	-6982
effect	-6983
▁mind	-6984
partitions	-6985
▁adderror	-6986
ildelement	-6987
▁{""	-6988
ello	-6989
▁isprimitive	-6990
▁sit	-6991
▁propert	-6992
cn	-6993
orer	-6994
erest	-6995
english	-6996
sess	-6997
▁closequietly	-6998
▁disconnect	-6999
iname	-7000
▁okhttp	-7001
docs	-7002
▁activation	-7003
▁clip	-7004
▁glob	-7005
▁pojo	-7006
▁groupby	-7007
▁putifabsent	-7008
▁ptr	-7009
milli	-7010
▁getoption	-7011
activate	-7012
ace	-7013
▁stand	-7014
interfac	-7015
84	-7016
▁mithr	-7017
▁assume	-7018
requested	-7019
▁allux	-7020
▁pref	-7021
▁streaming	-7022
▁getoutputstream	-7023
upported	-7024
▁itself	-7025
▁remover	-7026
▁encrypted	-7027
managerfactory	-7028
cks	-7029
▁rm	-7030
emem	-7031
▁etc	-7032
blems	-7033
oordin	-7034
▁caster	-7035
▁servers	-7036
▁sublist	-7037
oauth	-7038
▁touch	-7039
▁setparent	-7040
▁resid	-7041
▁findfirst	-7042
▁suspend	-7043
aff	-7044
obox	-7045
agger	-7046
▁getendpoint	-7047
▁plain	-7048
uretype	-7049
▁ton	-7050
3.	-7051
:4	-7052
▁geteclassifiers	-7053
runtim	-7054
▁createnew	-7055
▁annot	-7056
limited	-7057
ewrapper	-7058
▁sy	-7059
▁igno	-7060
▁successful	-7061
prox	-7062
icture	-7063
▁multiply	-7064
recurs	-7065
rawable	-7066
▁[{}]""	-7067
specified	-7068
▁undefined	-7069
▁httpserver	-7070
▁zookeeper	-7071
▁middle	-7072
animator	-7073
▁bitset	-7074
▁rendering	-7075
▁dashboard	-7076
slash	-7077
deserializer	-7078
here	-7079
pairs	-7080
ategor	-7081
▁getoperation	-7082
andatory	-7083
▁quality	-7084
▁conflict	-7085
▁dbconstants	-7086
▁objectid	-7087
▁war	-7088
factories	-7089
);""	-7090
rod	-7091
▁installed	-7092
▁recursive	-7093
solution	-7094
▁getlocale	-7095
▁getby	-7096
▁vdm	-7097
pager	-7098
▁toblocking	-7099
▁booleanvalue	-7100
servers	-7101
▁compilation	-7102
topology	-7103
erset	-7104
ever	-7105
cript	-7106
▁cookies	-7107
▁getparentfile	-7108
ote	-7109
▁retain	-7110
tenant	-7111
▁basedir	-7112
popup	-7113
olution	-7114
▁cloudexception	-7115
▁setlast	-7116
▁spatial	-7117
▁encryption	-7118
lem	-7119
ifnot	-7120
_48	-7121
slt	-7122
uation	-7123
rollback	-7124
▁removes	-7125
▁addmethod	-7126
necessary	-7127
▁jobs	-7128
removes	-7129
callable	-7130
▁providers	-7131
identifiable	-7132
▁price	-7133
▁chunks	-7134
▁linenumber	-7135
▁implicit	-7136
▁assertionerror	-7137
▁mi	-7138
ably	-7139
▁""{}	-7140
▁getexception	-7141
▁naming	-7142
▁updater	-7143
▁drag	-7144
▁coords	-7145
ality	-7146
union	-7147
maps	-7148
resolve	-7149
▁allows	-7150
▁invoked	-7151
▁cardinality	-7152
▁parameterindex	-7153
▁getrelation	-7154
▁primarykey	-7155
tot	-7156
▁generat	-7157
▁variablename	-7158
▁commerceaccount	-7159
until	-7160
indexed	-7161
▁rename	-7162
assigned	-7163
enk	-7164
osu	-7165
sim	-7166
correct	-7167
▁isinfo	-7168
contract	-7169
▁invoice	-7170
otification	-7171
ladd	-7172
dynamic	-7173
▁(%	-7174
omer	-7175
▁writeend	-7176
▁requestbody	-7177
▁choice	-7178
▁getcontainer	-7179
odec	-7180
ocab	-7181
▁capture	-7182
policyrequest	-7183
36	-7184
raft	-7185
▁xsd	-7186
▁interpol	-7187
▁findall	-7188
▁samples	-7189
▁shell	-7190
▁setfield	-7191
▁2.	-7192
ysql	-7193
criterion	-7194
oney	-7195
throwable	-7196
media	-7197
evaluator	-7198
▁apic	-7199
▁getuuid	-7200
▁fit	-7201
updater	-7202
rmaj	-7203
unused	-7204
▁dayof	-7205
▁zipentry	-7206
▁legacy	-7207
▁triple	-7208
lexpression	-7209
aggregator	-7210
▁getnumberof	-7211
channels	-7212
▁readlong	-7213
▁elapsed	-7214
▁iterables	-7215
▁bpmn	-7216
▁writing	-7217
caches	-7218
partial	-7219
▁implemented	-7220
▁stax	-7221
▁outbound	-7222
▁fd	-7223
offsets	-7224
▁nosuchalgorithm	-7225
▁tomap	-7226
declared	-7227
▁getblock	-7228
loadbalancer	-7229
▁counts	-7230
imestamp	-7231
▁contexts	-7232
▁nm	-7233
▁randomvariable	-7234
zoom	-7235
▁pageexception	-7236
endian	-7237
amanager	-7238
latest	-7239
26	-7240
▁sqltype	-7241
▁buffersize	-7242
xbase	-7243
submit	-7244
▁player	-7245
▁ptype	-7246
grad	-7247
▁hive	-7248
▁isfile	-7249
datastore	-7250
▁analyzer	-7251
▁isinfoenabled	-7252
▁ri	-7253
▁gue	-7254
vault	-7255
▁getidentity	-7256
▁initialization	-7257
upplier	-7258
▁aclass	-7259
▁getsymbol	-7260
▁successfully	-7261
▁appname	-7262
circ	-7263
▁aux	-7264
▁foot	-7265
▁detected	-7266
iso	-7267
nanos	-7268
since	-7269
▁poly	-7270
serror	-7271
gi	-7272
▁svg	-7273
▁verb	-7274
vpn	-7275
▁&#	-7276
▁hosts	-7277
▁orientation	-7278
ste	-7279
▁addstatement	-7280
▁tf	-7281
apar	-7282
▁bid	-7283
replication	-7284
▁privatekey	-7285
ranges	-7286
priceentry	-7287
▁foreign	-7288
consume	-7289
▁permit	-7290
▁additem	-7291
ooki	-7292
emodule	-7293
stri	-7294
▁styleable	-7295
istype	-7296
hierarchy	-7297
etic	-7298
wall	-7299
▁setlength	-7300
modelimpl	-7301
▁incrementandget	-7302
:5	-7303
▁fram	-7304
▁evaluator	-7305
lef	-7306
was	-7307
uni	-7308
▁hollow	-7309
▁expired	-7310
▁vault	-7311
wrapped	-7312
▁starto	-7313
initialize	-7314
▁getpackage	-7315
aprovider	-7316
enclosing	-7317
▁equivalent	-7318
▁fis	-7319
▁backward	-7320
lif	-7321
▁absent	-7322
▁sparse	-7323
inmillis	-7324
▁anym	-7325
digest	-7326
▁discover	-7327
▁jsonwriter	-7328
▁weak	-7329
▁checkbox	-7330
▁settitle	-7331
▁machine	-7332
▁secretkey	-7333
ffff	-7334
mig	-7335
▁pom	-7336
finite	-7337
▁setuser	-7338
▁menuitem	-7339
repo	-7340
ggers	-7341
▁tem	-7342
exact	-7343
ially	-7344
reduce	-7345
▁adaptor	-7346
▁sessions	-7347
typereference	-7348
('	-7349
station	-7350
▁hours	-7351
ecla	-7352
crimin	-7353
javatype	-7354
eclaration	-7355
▁ads	-7356
▁won	-7357
▁rr	-7358
▁getoptions	-7359
parsingcomponent	-7360
▁eas	-7361
decode	-7362
▁translated	-7363
atten	-7364
▁priv	-7365
anagers	-7366
▁eps	-7367
accumul	-7368
alsize	-7369
projection	-7370
▁methodbuilder	-7371
enull	-7372
pur	-7373
ratio	-7374
sel	-7375
quantity	-7376
▁commercet	-7377
imer	-7378
ragments	-7379
▁transformed	-7380
▁historic	-7381
▁getvariable	-7382
tow	-7383
refs	-7384
▁typereference	-7385
eploy	-7386
▁baseurl	-7387
letter	-7388
outcome	-7389
ifneeded	-7390
▁{@	-7391
▁locked	-7392
many	-7393
▁jsongenerator	-7394
▁men	-7395
▁tog	-7396
▁large	-7397
▁partitionid	-7398
orupdate	-7399
evaluation	-7400
▁aspect	-7401
▁scenario	-7402
▁messagedigest	-7403
▁cut	-7404
enext	-7405
▁issh	-7406
scheduler	-7407
lite	-7408
poo	-7409
unnel	-7410
ior	-7411
▁home	-7412
▁zipfile	-7413
▁setlayout	-7414
▁cam	-7415
given	-7416
▁containerid	-7417
ackson	-7418
▁clause	-7419
▁ance	-7420
etostring	-7421
compile	-7422
inherit	-7423
positories	-7424
▁channe	-7425
],	-7426
▁getactual	-7427
▁capability	-7428
▁stringtype	-7429
▁ide	-7430
atar	-7431
rier	-7432
warehouse	-7433
mid	-7434
ograph	-7435
implicit	-7436
▁requestmapping	-7437
caling	-7438
levels	-7439
privileged	-7440
▁resourcebundle	-7441
▁sett	-7442
jn	-7443
▁inputtype	-7444
▁definitions	-7445
histogram	-7446
▁alarm	-7447
▁nt	-7448
▁indexname	-7449
!!	-7450
▁trimmed	-7451
▁isnotnull	-7452
embedded	-7453
volum	-7454
▁numrows	-7455
coord	-7456
called	-7457
imports	-7458
▁tracker	-7459
▁gp	-7460
live	-7461
▁sampl	-7462
attempts	-7463
▁17	-7464
inclusive	-7465
▁recording	-7466
categories	-7467
▁major	-7468
▁writeline	-7469
▁cassandra	-7470
▁kam	-7471
▁idle	-7472
▁hidden	-7473
sequ	-7474
▁longer	-7475
ryo	-7476
visor	-7477
▁beanmanager	-7478
▁elasticsearch	-7479
too	-7480
detection	-7481
requestexception	-7482
200	-7483
▁fos	-7484
clock	-7485
initializ	-7486
bec	-7487
▁ee	-7488
precision	-7489
syn	-7490
lism	-7491
▁jpa	-7492
runnable	-7493
benchmark	-7494
▁subset	-7495
▁autom	-7496
▁readstring	-7497
uby	-7498
must	-7499
▁readlock	-7500
▁propagate	-7501
▁expire	-7502
▁parsedouble	-7503
aper	-7504
unication	-7505
▁except	-7506
▁setcurrent	-7507
▁msgs	-7508
atetime	-7509
▁soy	-7510
▁couch	-7511
▁getth	-7512
ark	-7513
▁writevalue	-7514
▁gzip	-7515
▁popup	-7516
▁listby	-7517
▁inference	-7518
unct	-7519
fieldaccessors	-7520
anc	-7521
▁toolbar	-7522
pg	-7523
ulator	-7524
▁minus	-7525
working	-7526
▁distributed	-7527
▁ovh	-7528
chooser	-7529
estimate	-7530
sdk	-7531
du	-7532
▁dmn	-7533
▁appl	-7534
▁locations	-7535
dit	-7536
fied	-7537
jobrequest	-7538
▁audio	-7539
▁gettemplate	-7540
▁parseboolean	-7541
arrow	-7542
prule	-7543
▁offsets	-7544
comments	-7545
▁loglevel	-7546
▁endelement	-7547
▁beanname	-7548
▁getread	-7549
▁skipped	-7550
▁raf	-7551
▁care	-7552
▁^=	-7553
▁clz	-7554
▁bytesread	-7555
video	-7556
▁recovery	-7557
▁templates	-7558
▁dup	-7559
▁signed	-7560
▁gvr	-7561
▁sto	-7562
▁proceed	-7563
▁authenticate	-7564
vor	-7565
anned	-7566
expect	-7567
▁generation	-7568
▁jboss	-7569
objecttype	-7570
▁intersection	-7571
▁ai	-7572
▁paras	-7573
▁pn	-7574
[0	-7575
▁10000	-7576
▁createquery	-7577
func	-7578
curve	-7579
▁recur	-7580
▁getpassword	-7581
tof	-7582
▁rb	-7583
▁documentbuilder	-7584
buff	-7585
▁getextension	-7586
▁localdatetime	-7587
gree	-7588
▁pod	-7589
cd	-7590
▁detach	-7591
tmp	-7592
▁dfs	-7593
▁isre	-7594
▁getsegment	-7595
▁messaging	-7596
pens	-7597
failureexception	-7598
celer	-7599
orian	-7600
▁getinternal	-7601
▁performance	-7602
▁deliver	-7603
▁mandatory	-7604
▁executeupdate	-7605
▁getserialized	-7606
datal	-7607
▁rowindex	-7608
▁theme	-7609
▁outputfile	-7610
▁margin	-7611
riteri	-7612
synchronized	-7613
socketfactory	-7614
localctx	-7615
▁requestbuilder	-7616
mb	-7617
▁nl	-7618
ised	-7619
▁treenode	-7620
▁rand	-7621
▁squareup	-7622
▁initialvalue	-7623
oded	-7624
▁getnodename	-7625
lec	-7626
▁ti	-7627
▁""+	-7628
▁english	-7629
▁paramtypes	-7630
▁countdownlatch	-7631
▁diag	-7632
▁geti	-7633
authenticated	-7634
mapt	-7635
▁stride	-7636
▁sequenc	-7637
▁webdriver	-7638
▁blue	-7639
▁views	-7640
android	-7641
▁weights	-7642
▁referenc	-7643
stringutil	-7644
omap	-7645
▁getapi	-7646
▁turn	-7647
▁logs	-7648
▁overflow	-7649
▁enough	-7650
mock	-7651
▁ping	-7652
▁vals	-7653
▁higher	-7654
▁attachments	-7655
▁setvisibility	-7656
:3	-7657
▁rootnode	-7658
offer	-7659
xffff	-7660
▁pure	-7661
▁better	-7662
delivery	-7663
aggregate	-7664
▁pars	-7665
starto	-7666
between	-7667
ificant	-7668
▁fetchby	-7669
▁verification	-7670
processinstance	-7671
▁numcols	-7672
_1_1	-7673
▁xx	-7674
apic	-7675
▁anything	-7676
github	-7677
parses	-7678
▁addfield	-7679
▁hy	-7680
▁focus	-7681
retries	-7682
▁httpsession	-7683
▁resourcepath	-7684
png	-7685
▁messageid	-7686
▁logic	-7687
▁depend	-7688
▁getmethods	-7689
▁apiversion	-7690
▁/=	-7691
there	-7692
inventory	-7693
▁typetoken	-7694
concat	-7695
▁joiner	-7696
▁vs	-7697
▁substitution	-7698
capabilities	-7699
activation	-7700
▁router	-7701
▁edatatype	-7702
broker	-7703
$""	-7704
usag	-7705
za	-7706
▁nf	-7707
▁getting	-7708
:%	-7709
caller	-7710
parameterized	-7711
▁ffdcfilter	-7712
series	-7713
▁bufferedwriter	-7714
▁databu	-7715
arequest	-7716
▁subtype	-7717
composite	-7718
attachments	-7719
▁executequery	-7720
starttime	-7721
ral	-7722
▁"">	-7723
oti	-7724
ango	-7725
asured	-7726
▁unicode	-7727
▁wb	-7728
ther	-7729
▁"";	-7730
workspace	-7731
pp	-7732
poolsize	-7733
▁intersect	-7734
▁cycle	-7735
logical	-7736
etokens	-7737
ippet	-7738
▁merg	-7739
▁spark	-7740
coder	-7741
▁vel	-7742
▁getout	-7743
▁getmain	-7744
▁getimage	-7745
participant	-7746
▁restriction	-7747
generictype	-7748
mf	-7749
pacing	-7750
vation	-7751
business	-7752
▁propertykey	-7753
ners	-7754
▁tensor	-7755
▁publickey	-7756
▁getinteger	-7757
▁`	-7758
tml	-7759
arrays	-7760
▁combine	-7761
committed	-7762
▁experiment	-7763
▁requestmethod	-7764
▁500	-7765
▁wire	-7766
▁pager	-7767
▁secondary	-7768
▁spliterator	-7769
rul	-7770
errorcode	-7771
▁sourcefile	-7772
▁aw	-7773
▁fault	-7774
▁numer	-7775
▁getdomain	-7776
startelement	-7777
ahead	-7778
▁boot	-7779
▁craw	-7780
versed	-7781
▁creator	-7782
▁plugins	-7783
performed	-7784
etails	-7785
intext	-7786
▁dict	-7787
▁modul	-7788
▁actionrequest	-7789
▁maxsize	-7790
emess	-7791
sessions	-7792
▁interfac	-7793
▁pv	-7794
▁share	-7795
projects	-7796
laz	-7797
vertices	-7798
▁randomaccess	-7799
▁[]	-7800
▁applied	-7801
translation	-7802
enkins	-7803
▁around	-7804
ourcename	-7805
▁appendchild	-7806
▁getpersistence	-7807
▁computed	-7808
▁terminate	-7809
▁prox	-7810
analyzer	-7811
▁webelement	-7812
▁cud	-7813
semant	-7814
ingleton	-7815
▁enumset	-7816
▁namespaces	-7817
ipv	-7818
wish	-7819
▁toint	-7820
bid	-7821
bre	-7822
▁cells	-7823
severity	-7824
pipelin	-7825
▁queu	-7826
uages	-7827
reement	-7828
▁documents	-7829
buckets	-7830
▁classification	-7831
:\	-7832
veloper	-7833
▁tohexstring	-7834
▁getannotations	-7835
achin	-7836
resp	-7837
://""	-7838
▁opts	-7839
17	-7840
[%	-7841
▁ask	-7842
ances	-7843
anning	-7844
▁aggregator	-7845
pacename	-7846
▁walk	-7847
▁letter	-7848
isplay	-7849
▁pooled	-7850
▁getprotocol	-7851
▁anno	-7852
▁github	-7853
▁getproxy	-7854
crete	-7855
▁pred	-7856
ataset	-7857
▁invoker	-7858
▁getthread	-7859
▁getexternal	-7860
1,	-7861
peg	-7862
▁animator	-7863
▁progressrequest	-7864
▁hierarchy	-7865
coordinates	-7866
▁jdb	-7867
▁finer	-7868
restore	-7869
interpol	-7870
▁versioned	-7871
share	-7872
itr	-7873
odelete	-7874
▁semantic	-7875
saf	-7876
ture	-7877
▁indext	-7878
▁disassoci	-7879
▁setint	-7880
mean	-7881
olations	-7882
▁billing	-7883
▁nn	-7884
▁supertype	-7885
aa	-7886
▁mithra	-7887
▁preferences	-7888
▁128	-7889
spaces	-7890
▁cance	-7891
▁getnamed	-7892
imes	-7893
▁jdk	-7894
ewrit	-7895
ports	-7896
▁dependent	-7897
▁currenttime	-7898
▁rotate	-7899
ifunction	-7900
coords	-7901
handles	-7902
▁getsecond	-7903
sep	-7904
▁colon	-7905
▁whitespace	-7906
▁gettypename	-7907
autocreate	-7908
▁rp	-7909
▁clon	-7910
▁expanded	-7911
objectreference	-7912
▁mime	-7913
▁coord	-7914
▁jlabel	-7915
▁emptymap	-7916
_49	-7917
▁inverse	-7918
▁texture	-7919
▁getcustom	-7920
▁wall	-7921
modeld	-7922
minute	-7923
▁getand	-7924
initialization	-7925
hi	-7926
bytag	-7927
▁rowkey	-7928
▁xid	-7929
▁getsecurity	-7930
console	-7931
compound	-7932
▁addresource	-7933
▁nano	-7934
▁getpoint	-7935
▁instanceid	-7936
▁loadbalancer	-7937
ertask	-7938
▁classifier	-7939
but	-7940
▁00	-7941
enfor	-7942
formats	-7943
▁setkey	-7944
representation	-7945
▁rw	-7946
kt	-7947
ontype	-7948
▁similar	-7949
▁getfunction	-7950
apache	-7951
▁setoutput	-7952
contexts	-7953
▁reuse	-7954
kip	-7955
tile	-7956
▁floor	-7957
▁startup	-7958
oad	-7959
▁px	-7960
▁devic	-7961
▁objectnode	-7962
leader	-7963
▁really	-7964
processors	-7965
▁buckets	-7966
▁schedulers	-7967
▁describes	-7968
▁xy	-7969
slambda	-7970
▁textfield	-7971
▁outcome	-7972
▁paramtype	-7973
▁<%	-7974
▁ascii	-7975
▁getlayout	-7976
ze	-7977
lext	-7978
▁aggslambda	-7979
attributevalue	-7980
▁anim	-7981
infinity	-7982
▁classtype	-7983
closure	-7984
restriction	-7985
codeableconcept	-7986
▁toast	-7987
▁patient	-7988
▁formatt	-7989
templates	-7990
▁companyid	-7991
▁getruntime	-7992
▁cle	-7993
propag	-7994
▁increase	-7995
▁perm	-7996
▁addaction	-7997
shell	-7998
preview	-7999
▁bimserver	-8000
baseurl	-8001
conflict	-8002
▁windows	-8003
aproperty	-8004
castexception	-8005
5""	-8006
footer	-8007
▁transient	-8008
▁currentnode	-8009
▁tracer	-8010
▁previously	-8011
vertical	-8012
txt	-8013
apoint	-8014
▁design	-8015
▁varname	-8016
▁dmatrixrmaj	-8017
xid	-8018
leas	-8019
violation	-8020
▁namespaceuri	-8021
▁cql	-8022
▁epoch	-8023
voice	-8024
▁cmsobject	-8025
ytext	-8026
derror	-8027
▁atoms	-8028
▁closer	-8029
roupt	-8030
▁front	-8031
creating	-8032
▁getgroupid	-8033
▁containers	-8034
erate	-8035
chanism	-8036
ently	-8037
▁solver	-8038
▁bt	-8039
▁issuccess	-8040
▁objectoutput	-8041
sn	-8042
iling	-8043
multip	-8044
▁probe	-8045
▁jjtn	-8046
sun	-8047
languag	-8048
vity	-8049
frames	-8050
▁whole	-8051
▁formula	-8052
configured	-8053
▁participant	-8054
100	-8055
statistic	-8056
▁compiled	-8057
▁clustering	-8058
▁enhance	-8059
▁budget	-8060
▁associate	-8061
xm	-8062
proces	-8063
▁provides	-8064
erece	-8065
extend	-8066
amethod	-8067
▁stopwatch	-8068
encrypt	-8069
▁ocommand	-8070
▁ipaddress	-8071
attributename	-8072
▁toler	-8073
▁leading	-8074
azel	-8075
▁saml	-8076
verification	-8077
▁columnnames	-8078
enant	-8079
▁getremote	-8080
pin	-8081
stag	-8082
thetic	-8083
helpers	-8084
▁average	-8085
▁getgeneric	-8086
rv	-8087
arning	-8088
▁rawtype	-8089
▁jsonproperty	-8090
ean	-8091
▁chrono	-8092
▁wa	-8093
▁getcollection	-8094
fl	-8095
▁fld	-8096
▁subtract	-8097
\"":	-8098
▁getrule	-8099
▁jobexecution	-8100
▁resume	-8101
cular	-8102
interceptors	-8103
▁getline	-8104
fieldtype	-8105
▁addvalue	-8106
▁crypto	-8107
▁getfeature	-8108
istr	-8109
seud	-8110
izard	-8111
icular	-8112
▁cpinstance	-8113
endpoints	-8114
▁gwt	-8115
▁broker	-8116
ancer	-8117
▁alg	-8118
ytics	-8119
▁"">""	-8120
▁requirement	-8121
strict	-8122
ingmode	-8123
▁exactly	-8124
▁datam	-8125
classifier	-8126
▁having	-8127
▁bucketname	-8128
pat	-8129
bidden	-8130
usersegmententry	-8131
90	-8132
▁toset	-8133
▁parametertype	-8134
▁om	-8135
▁responses	-8136
entitymanager	-8137
▁cw	-8138
▁fp	-8139
outline	-8140
▁typevariable	-8141
▁yes	-8142
rogate	-8143
▁getpage	-8144
▁upgrade	-8145
▁traverse	-8146
iteration	-8147
▁resize	-8148
gradient	-8149
▁setselected	-8150
3_	-8151
▁kill	-8152
sb	-8153
▁getcms	-8154
▁memoized	-8155
mouse	-8156
▁getap	-8157
▁overwrite	-8158
changeevent	-8159
▁setcontenttype	-8160
_50	-8161
classinfo	-8162
▁parentnode	-8163
tick	-8164
▁getwriter	-8165
获取	-8166
ribut	-8167
uber	-8168
▁reached	-8169
you	-8170
expir	-8171
▁latch	-8172
▁getapp	-8173
jsonarray	-8174
▁micro	-8175
collect	-8176
▁appear	-8177
umbn	-8178
itable	-8179
▁256	-8180
bridge	-8181
poutput	-8182
capability	-8183
▁fieldinfo	-8184
▁kryo	-8185
▁dummy	-8186
▁getcla	-8187
▁knowled	-8188
▁istraceon	-8189
pred	-8190
▁salt	-8191
ylevel	-8192
▁getinit	-8193
▁capabilities	-8194
▁logp	-8195
▁splits	-8196
▁pathelement	-8197
noin	-8198
▁individual	-8199
pub	-8200
positive	-8201
elocation	-8202
▁trailing	-8203
deleg	-8204
targets	-8205
▁tabler	-8206
▁sas	-8207
▁allocation	-8208
▁qr	-8209
▁bund	-8210
▁spaceid	-8211
▁readbyte	-8212
attached	-8213
▁callbacks	-8214
instanti	-8215
addon	-8216
built	-8217
determin	-8218
▁traversal	-8219
cycle	-8220
▁setre	-8221
foreign	-8222
▁decoding	-8223
templat	-8224
▁parents	-8225
▁kn	-8226
returnvalue	-8227
▁getdeployment	-8228
▁fork	-8229
▁getprefix	-8230
▁messagetype	-8231
allery	-8232
▁addlast	-8233
ipaddress	-8234
▁entityid	-8235
gc	-8236
▁refer	-8237
▁workitem	-8238
▁clustername	-8239
spring	-8240
▁emitter	-8241
▁initializer	-8242
artifacts	-8243
▁immediately	-8244
etest	-8245
▁getweb	-8246
▁addline	-8247
▁rep	-8248
▁sct	-8249
▁sqlg	-8250
ssize	-8251
windows	-8252
configurator	-8253
88	-8254
riendly	-8255
▁detector	-8256
epoch	-8257
confirm	-8258
▁derived	-8259
▁motionevent	-8260
inth	-8261
▁ship	-8262
eseries	-8263
▁inser	-8264
▁endpoints	-8265
while	-8266
▁unsigned	-8267
recognized	-8268
▁collectionutils	-8269
tail	-8270
▁aliases	-8271
▁columnfamily	-8272
train	-8273
▁marked	-8274
ediff	-8275
objectname	-8276
▁zoneid	-8277
etags	-8278
poser	-8279
arging	-8280
rotation	-8281
rf	-8282
cam	-8283
▁oidentifiable	-8284
loud	-8285
▁good	-8286
▁expires	-8287
inprogress	-8288
▁boundingbox	-8289
▁commer	-8290
▁listiterator	-8291
▁ja	-8292
typeenum	-8293
compute	-8294
filtered	-8295
▁workunit	-8296
dst	-8297
▁room	-8298
pixels	-8299
continue	-8300
▁navig	-8301
insensitive	-8302
▁sending	-8303
▁coverage	-8304
cardinality	-8305
rels	-8306
seed	-8307
clone	-8308
reserved	-8309
▁blocksize	-8310
▁getsc	-8311
proc	-8312
aking	-8313
assertion	-8314
▁objectinput	-8315
▁magic	-8316
arter	-8317
etimeout	-8318
phonenumber	-8319
▁multivalue	-8320
routing	-8321
▁flowable	-8322
▁fullname	-8323
▁byteorder	-8324
printer	-8325
mimetype	-8326
▁confirm	-8327
generation	-8328
▁fatal	-8329
▁isequal	-8330
ji	-8331
▁allocated	-8332
edir	-8333
▁tv	-8334
▁convertfrom	-8335
▁inputsource	-8336
▁dp	-8337
requestprotocol	-8338
▁dl	-8339
▁lp	-8340
▁getz	-8341
pressure	-8342
▁including	-8343
▁setobject	-8344
▁currentpos	-8345
ypes	-8346
▁scriptable	-8347
▁bos	-8348
abs	-8349
erevent	-8350
front	-8351
▁flux	-8352
verser	-8353
readable	-8354
▁pie	-8355
▁operators	-8356
▁categories	-8357
▁chained	-8358
▁ajax	-8359
▁docid	-8360
▁makes	-8361
▁handshake	-8362
membership	-8363
threadpool	-8364
stringbuilder	-8365
▁nonce	-8366
exclusive	-8367
▁implements	-8368
dialect	-8369
nowledge	-8370
▁automatically	-8371
ung	-8372
▁possib	-8373
▁isfirst	-8374
oneddatetime	-8375
bolic	-8376
▁ef	-8377
▁fails	-8378
orientation	-8379
▁getdatatype	-8380
requestcontext	-8381
▁fold	-8382
verag	-8383
ansion	-8384
▁deletec	-8385
executable	-8386
geo	-8387
ightt	-8388
enforcer	-8389
nested	-8390
▁unary	-8391
spection	-8392
▁applic	-8393
frequency	-8394
inclusion	-8395
▁getbuild	-8396
▁explicitly	-8397
white	-8398
noinspection	-8399
securitygroup	-8400
77	-8401
95	-8402
▁schemaname	-8403
men	-8404
keyvalue	-8405
multipart	-8406
▁mps	-8407
nonce	-8408
dirty	-8409
▁quant	-8410
▁physical	-8411
▁filestatus	-8412
▁argv	-8413
precation	-8414
▁devfailed	-8415
concurrent	-8416
xp	-8417
▁hiv	-8418
▁writed	-8419
▁getmodule	-8420
histor	-8421
esis	-8422
▁logged	-8423
uced	-8424
ermin	-8425
▁green	-8426
▁pivot	-8427
▁scene	-8428
▁analyzed	-8429
bon	-8430
▁privileged	-8431
▁cu	-8432
▁resulting	-8433
▁insets	-8434
cop	-8435
▁strong	-8436
▁rewrite	-8437
▁probably	-8438
▁iatomcontainer	-8439
▁ot	-8440
ulti	-8441
▁metri	-8442
varname	-8443
▁problems	-8444
▁getcolumns	-8445
iline	-8446
assistant	-8447
▁velocity	-8448
▁pagination	-8449
▁predicates	-8450
ryrun	-8451
got	-8452
grees	-8453
umbnail	-8454
ingsystem	-8455
▁particular	-8456
pread	-8457
▁trade	-8458
sessment	-8459
▁configfile	-8460
▁pp	-8461
▁fmt	-8462
▁liter	-8463
arc	-8464
hub	-8465
streamreader	-8466
repla	-8467
specs	-8468
▁getl	-8469
esolver	-8470
▁contentlength	-8471
▁emptyset	-8472
▁isclosed	-8473
▁cancelled	-8474
▁setresource	-8475
eployment	-8476
typearguments	-8477
party	-8478
varargs	-8479
▁circuit	-8480
▁registers	-8481
▁asynchronous	-8482
ern	-8483
▁rethrow	-8484
▁monitoring	-8485
▁getcontenttype	-8486
▁apit	-8487
▁isnan	-8488
billing	-8489
▁getoriginal	-8490
drag	-8491
budget	-8492
symbols	-8493
▁graphql	-8494
▁delivery	-8495
▁getbyte	-8496
identifiers	-8497
▁getauth	-8498
▁basename	-8499
mor	-8500
▁28	-8501
general	-8502
subsystem	-8503
▁addbody	-8504
▁overlay	-8505
▁addition	-8506
▁writeutf	-8507
▁{\	-8508
▁fed	-8509
ytime	-8510
broadcast	-8511
▁authority	-8512
▁""|	-8513
▁tofile	-8514
aliases	-8515
uniqueid	-8516
▁internals	-8517
enod	-8518
▁fun	-8519
▁mongo	-8520
▁columntype	-8521
▁compatible	-8522
nb	-8523
▁cus	-8524
▁paged	-8525
coordinate	-8526
escope	-8527
ocation	-8528
shandler	-8529
xf	-8530
▁newnode	-8531
▁getstacktrace	-8532
unary	-8533
bundler	-8534
▁getfieldname	-8535
filer	-8536
▁javac	-8537
▁adj	-8538
▁viewholder	-8539
92	-8540
▁lexer	-8541
▁accountid	-8542
▁druid	-8543
▁relativepath	-8544
一个	-8545
▁grow	-8546
compression	-8547
rank	-8548
allenge	-8549
▁gitlab	-8550
enumeration	-8551
▁memoizedsize	-8552
▁inflater	-8553
iteroot	-8554
▁alphabet	-8555
▁kie	-8556
▁stores	-8557
referenc	-8558
▁scaling	-8559
wind	-8560
ytag	-8561
chunks	-8562
extras	-8563
▁openconnection	-8564
transfer	-8565
nonnull	-8566
texture	-8567
vidence	-8568
fly	-8569
uli	-8570
▁sortedset	-8571
ignored	-8572
numberof	-8573
▁databuffer	-8574
▁utility	-8575
▁methodinfo	-8576
▁plot	-8577
watermark	-8578
▁contextpath	-8579
▁inflate	-8580
▁hibernate	-8581
numbers	-8582
▁cdk	-8583
▁choose	-8584
defaults	-8585
heartbeat	-8586
lr	-8587
▁decrement	-8588
▁onfailure	-8589
▁na	-8590
▁dos	-8591
▁getgraph	-8592
enam	-8593
▁guarant	-8594
▁building	-8595
▁newstate	-8596
▁filewriter	-8597
▁ni	-8598
latitude	-8599
▁sanit	-8600
_00	-8601
else	-8602
▁heartbeat	-8603
transformation	-8604
▁predict	-8605
serviceinterface	-8606
▁entire	-8607
stringvalue	-8608
▁topath	-8609
▁classfile	-8610
▁dynam	-8611
▁vc	-8612
calls	-8613
▁everything	-8614
▁interpreter	-8615
erelement	-8616
44	-8617
▁ki	-8618
paign	-8619
touch	-8620
intern	-8621
sentence	-8622
▁metricname	-8623
▁atomicinteger	-8624
aves	-8625
etom	-8626
▁tit	-8627
escal	-8628
streaming	-8629
ntk	-8630
itgateway	-8631
▁convertt	-8632
▁guard	-8633
▁casfeatcode	-8634
▁yy	-8635
▁made	-8636
▁power	-8637
▁dirty	-8638
▁getcp	-8639
▁setis	-8640
▁able	-8641
iphers	-8642
▁caught	-8643
▁copied	-8644
ational	-8645
▁calculated	-8646
eventtype	-8647
▁valueenforcer	-8648
▁""^	-8649
meter	-8650
▁restrict	-8651
icol	-8652
▁threadpool	-8653
▁26	-8654
atures	-8655
design	-8656
▁tl	-8657
levant	-8658
▁istrue	-8659
escrib	-8660
junction	-8661
▁subscriptionid	-8662
alker	-8663
putils	-8664
▁zer	-8665
▁newname	-8666
best	-8667
▁blk	-8668
▁""#""	-8669
▁chrom	-8670
▁prefs	-8671
▁outgoing	-8672
▁paging	-8673
currences	-8674
▁actionevent	-8675
astore	-8676
oftype	-8677
▁leave	-8678
polygon	-8679
▁imports	-8680
▁bytecode	-8681
▁fromresponse	-8682
▁atts	-8683
inline	-8684
incipals	-8685
▁caching	-8686
▁aggregated	-8687
▁openstream	-8688
si	-8689
pod	-8690
▁grib	-8691
scanpos	-8692
▁responsefields	-8693
eload	-8694
▁footer	-8695
ecallback	-8696
▁rejected	-8697
inspector	-8698
does	-8699
stamps	-8700
▁doget	-8701
▁market	-8702
mixin	-8703
▁responseentity	-8704
▁scm	-8705
azelcast	-8706
terminal	-8707
▁tracing	-8708
slice	-8709
▁however	-8710
▁getscheme	-8711
▁directories	-8712
laddress	-8713
▁tomillis	-8714
▁vpn	-8715
irection	-8716
mtp	-8717
rgb	-8718
▁documentation	-8719
▁orient	-8720
▁asof	-8721
quotes	-8722
poll	-8723
▁templ	-8724
▁jobname	-8725
▁isactive	-8726
directories	-8727
▁dofilter	-8728
ae	-8729
▁literals	-8730
▁paragraph	-8731
diss	-8732
▁{0}	-8733
▁latitude	-8734
verify	-8735
-9	-8736
▁foo	-8737
oracle	-8738
cleanup	-8739
▁getbas	-8740
fromstring	-8741
player	-8742
strong	-8743
fallback	-8744
▁imported	-8745
cnt	-8746
▁userinfo	-8747
▁netty	-8748
▁takes	-8749
cpdefinition	-8750
▁cmsstringutil	-8751
▁caches	-8752
▁commont	-8753
ingstrategy	-8754
sur	-8755
▁getrepository	-8756
gau	-8757
journal	-8758
requestid	-8759
pullparser	-8760
ynamicquery	-8761
alph	-8762
ouch	-8763
inator	-8764
▁nor	-8765
portal	-8766
▁camel	-8767
▁twitter	-8768
▁utc	-8769
▁getclientid	-8770
capt	-8771
ents	-8772
ulate	-8773
ertext	-8774
▁configurations	-8775
▁avro	-8776
▁medic	-8777
oclient	-8778
▁axiom	-8779
▁getsettings	-8780
managers	-8781
▁preview	-8782
▁getdestination	-8783
▁cv	-8784
▁fur	-8785
channe	-8786
▁setsize	-8787
▁longitude	-8788
▁alluxio	-8789
abledynamicquery	-8790
decom	-8791
anchor	-8792
▁projects	-8793
▁descriptors	-8794
cid	-8795
▁ones	-8796
▁locate	-8797
kely	-8798
▁jenkins	-8799
▁setbackground	-8800
poly	-8801
ytable	-8802
overflow	-8803
coin	-8804
iset	-8805
▁boo	-8806
requirement	-8807
ubscrib	-8808
▁remainder	-8809
▁parsercontext	-8810
edat	-8811
etched	-8812
lecule	-8813
▁tenantid	-8814
▁tolerance	-8815
variablename	-8816
oler	-8817
▁methodnode	-8818
subnet	-8819
compress	-8820
▁outside	-8821
37	-8822
▁wiki	-8823
duplicate	-8824
cells	-8825
dates	-8826
layers	-8827
stored	-8828
▁onnext	-8829
▁getarray	-8830
▁sfield	-8831
lazy	-8832
receive	-8833
={}	-8834
sender	-8835
▁divide	-8836
▁basetype	-8837
▁dbobject	-8838
▁getlevel	-8839
▁dap	-8840
▁httppost	-8841
difference	-8842
▁getlanguage	-8843
lers	-8844
then	-8845
▁currentvalue	-8846
neighb	-8847
▁validated	-8848
▁fielddescriptor	-8849
brid	-8850
textfield	-8851
conditional	-8852
zon	-8853
exclude	-8854
shipment	-8855
handled	-8856
proposal	-8857
▁accepted	-8858
▁admanager	-8859
scache	-8860
▁mirror	-8861
▁mbeanserver	-8862
xpath	-8863
▁isopen	-8864
▁cmsuuid	-8865
▁inputfile	-8866
▁visitmethod	-8867
▁systemid	-8868
featurecall	-8869
▁fw	-8870
ableto	-8871
▁getpayload	-8872
▁setwidth	-8873
▁getarguments	-8874
▁dbid	-8875
describ	-8876
interpr	-8877
invoker	-8878
▁getreal	-8879
oct	-8880
prepare	-8881
choice	-8882
strans	-8883
subscriber	-8884
▁reach	-8885
ased	-8886
cheme	-8887
▁live	-8888
▁minor	-8889
suggest	-8890
▁ancestor	-8891
▁beanclass	-8892
▁executeget	-8893
▁accepts	-8894
mob	-8895
▁getglobal	-8896
▁singularity	-8897
▁getchildnodes	-8898
tobject	-8899
▁annotationclass	-8900
▁overlap	-8901
▁potential	-8902
ecl	-8903
oriancalendar	-8904
iti	-8905
anger	-8906
▁handleexception	-8907
eregister	-8908
econverter	-8909
▁bw	-8910
notify	-8911
▁srv	-8912
▁going	-8913
rations	-8914
▁colors	-8915
65	-8916
defin	-8917
▁spaces	-8918
least	-8919
▁authenticated	-8920
▁ve	-8921
▁hot	-8922
minus	-8923
fileentry	-8924
▁htmltree	-8925
▁getsubject	-8926
▁tier	-8927
uction	-8928
ransform	-8929
▁checkresult	-8930
authenticator	-8931
bum	-8932
▁rsp	-8933
facade	-8934
▁storm	-8935
variance	-8936
lac	-8937
allength	-8938
toperand	-8939
serviceexception	-8940
_51	-8941
replacement	-8942
verbose	-8943
▁artifactid	-8944
mq	-8945
sal	-8946
▁'{}'""	-8947
▁shut	-8948
javadoc	-8949
▁tobytes	-8950
▁azure	-8951
escaped	-8952
ndiname	-8953
▁profil	-8954
▁sarl	-8955
itemid	-8956
▁toplevel	-8957
cachemodel	-8958
▁writestart	-8959
▁ire	-8960
▁fieldnames	-8961
modify	-8962
▁gettest	-8963
▁checkarg	-8964
▁linestring	-8965
▁tracef	-8966
▁senderror	-8967
descriptions	-8968
edtype	-8969
▁getbuffer	-8970
▁internalrequest	-8971
▁threadlocal	-8972
.*	-8973
▁logout	-8974
▁discount	-8975
▁getrequired	-8976
▁currentstate	-8977
▁readunsigned	-8978
sym	-8979
.2	-8980
▁tb	-8981
reading	-8982
decorator	-8983
▁flatten	-8984
▁compatibility	-8985
jwt	-8986
uman	-8987
▁ali	-8988
▁rtn	-8989
velop	-8990
▁orders	-8991
▁simply	-8992
▁getplugin	-8993
fax	-8994
00""	-8995
▁overriding	-8996
▁isinterface	-8997
▁configurable	-8998
▁conv	-8999
checking	-9000
criminator	-9001
boundingbox	-9002
▁cachemanager	-9003
▁urlconnection	-9004
recovery	-9005
fixedrate	-9006
jmx	-9007
▁aa	-9008
lision	-9009
estr	-9010
▁greg	-9011
integr	-9012
seen	-9013
lueto	-9014
watcher	-9015
▁filereader	-9016
▁measurement	-9017
stos	-9018
▁occ	-9019
▁setsource	-9020
▁jsonreader	-9021
▁executedescrib	-9022
▁pipelineconfig	-9023
▁mr	-9024
ifnecessary	-9025
istance	-9026
iles	-9027
▁dense	-9028
▁imagetype	-9029
drools	-9030
ecolor	-9031
sibling	-9032
▁ifield	-9033
kill	-9034
aspect	-9035
▁quoted	-9036
classification	-9037
▁operationtype	-9038
▁inlin	-9039
dexecutor	-9040
▁seterror	-9041
viewholder	-9042
stylename	-9043
eweb	-9044
▁isun	-9045
▁""201	-9046
luetooth	-9047
riteriabuilder	-9048
guard	-9049
(%	-9050
▁datainput	-9051
vention	-9052
inflater	-9053
▁getmember	-9054
ato	-9055
▁kunder	-9056
▁criterion	-9057
▁setmessage	-9058
▁enotification	-9059
0,	-9060
▁rfc	-9061
▁fax	-9062
▁rul	-9063
▁undertow	-9064
▁effective	-9065
▁very	-9066
▁""1""	-9067
oscaling	-9068
▁newarray	-9069
▁getsearch	-9070
▁getselection	-9071
udy	-9072
▁modulename	-9073
hits	-9074
▁engin	-9075
intransaction	-9076
ablish	-9077
sobject	-9078
▁filterchain	-9079
▁hdfs	-9080
eserver	-9081
▁routes	-9082
▁addoption	-9083
▁extracted	-9084
notfound	-9085
▁setin	-9086
▁markup	-9087
ereport	-9088
▁attempts	-9089
ftp	-9090
▁symbols	-9091
▁channelfuture	-9092
▁authorizations	-9093
▁hide	-9094
installed	-9095
unavailable	-9096
38	-9097
tok	-9098
eloader	-9099
▁relativ	-9100
accountname	-9101
▁maxresults	-9102
▁cid	-9103
caught	-9104
retrieves	-9105
▁getitems	-9106
hy	-9107
▁expiry	-9108
leresult	-9109
verifier	-9110
▁getrole	-9111
couldn	-9112
▁mysql	-9113
▁jackson	-9114
thash	-9115
levent	-9116
▁frames	-9117
▁manage	-9118
▁getcurrency	-9119
▁rd	-9120
▁getenvironment	-9121
.%	-9122
fla	-9123
▁sbb	-9124
uren	-9125
▁nio	-9126
▁raft	-9127
▁extras	-9128
errorexception	-9129
▁bundlecontext	-9130
don	-9131
▁lefttuple	-9132
▁unknownfields	-9133
instancerequest	-9134
▁arc	-9135
▁bbox	-9136
▁others	-9137
▁exponent	-9138
▁setresponse	-9139
▁population	-9140
minimum	-9141
▁getbounds	-9142
storeexception	-9143
▁getenv	-9144
▁eventloop	-9145
ymode	-9146
▁previ	-9147
ficient	-9148
minutes	-9149
fortesting	-9150
▁xmlelementdecl	-9151
▁""0	-9152
▁projectname	-9153
ofar	-9154
▁getaccess	-9155
▁getfactory	-9156
▁prediction	-9157
▁dem	-9158
▁tax	-9159
alone	-9160
ticket	-9161
▁datar	-9162
izing	-9163
ino	-9164
▁javadoc	-9165
etransform	-9166
onym	-9167
▁tests	-9168
▁executing	-9169
fieldvalue	-9170
icast	-9171
assets	-9172
▁webapplication	-9173
city	-9174
▁unpack	-9175
▁typeinfo	-9176
▁constructors	-9177
▁keywords	-9178
scores	-9179
▁examples	-9180
▁settarget	-9181
nodetype	-9182
▁intercept	-9183
mediatype	-9184
▁getpadding	-9185
foundry	-9186
coverage	-9187
▁profiles	-9188
declarations	-9189
▁transactionid	-9190
router	-9191
▁bridge	-9192
inity	-9193
bugs	-9194
eval	-9195
▁datastream	-9196
▁22	-9197
orbuilder	-9198
optionpane	-9199
▁borderlayout	-9200
py	-9201
lyph	-9202
locks	-9203
▁past	-9204
▁elastic	-9205
▁httpheader	-9206
abort	-9207
▁newsize	-9208
dimensions	-9209
edescriptor	-9210
gap	-9211
pher	-9212
▁getprop	-9213
uals	-9214
ytes	-9215
▁doub	-9216
rendering	-9217
▁nom	-9218
lambda	-9219
upgrade	-9220
maries	-9221
ldap	-9222
▁btn	-9223
▁valueset	-9224
std	-9225
▁simp	-9226
setrequest	-9227
initi	-9228
celable	-9229
weights	-9230
certificat	-9231
▁sendmessage	-9232
▁getattachment	-9233
▁xmlpullparser	-9234
egistry	-9235
▁odatabase	-9236
▁doprivileged	-9237
▁requestparam	-9238
▁gap	-9239
greater	-9240
posable	-9241
relative	-9242
▁respons	-9243
▁getparams	-9244
▁jmsexception	-9245
servletrequest	-9246
timezone	-9247
▁isevent	-9248
▁highlight	-9249
▁violation	-9250
▁maxlength	-9251
bytagname	-9252
wrong	-9253
▁estimate	-9254
isor	-9255
▁cron	-9256
▁tech	-9257
▁prototype	-9258
▁""}	-9259
▁polling	-9260
efficient	-9261
agnostics	-9262
03	-9263
nan	-9264
anular	-9265
▁layers	-9266
▁outputs	-9267
chase	-9268
▁thing	-9269
::	-9270
bel	-9271
▁sms	-9272
▁further	-9273
▁jobconf	-9274
▁primitivetype	-9275
▁jr	-9276
black	-9277
▁getjsonobject	-9278
▁moved	-9279
▁balance	-9280
▁readbytes	-9281
▁responsecode	-9282
▁writemessage	-9283
▁team	-9284
▁macro	-9285
cancelled	-9286
▁tempfile	-9287
cdf	-9288
▁recycle	-9289
▁tracking	-9290
▁beginning	-9291
samples	-9292
▁startdate	-9293
paren	-9294
viewer	-9295
▁languag	-9296
eclause	-9297
esto	-9298
gind	-9299
litt	-9300
writing	-9301
▁raster	-9302
▁coin	-9303
pliance	-9304
▁interceptors	-9305
rue	-9306
rang	-9307
▁scores	-9308
▁privacy	-9309
ierarchical	-9310
▁ftp	-9311
▁apiclient	-9312
behavi	-9313
lexicon	-9314
▁removing	-9315
ordering	-9316
hole	-9317
scheduled	-9318
▁persisted	-9319
▁wx	-9320
half	-9321
reground	-9322
scre	-9323
▁reconnect	-9324
▁filechannel	-9325
▁cloudfoundry	-9326
---	-9327
{""	-9328
olong	-9329
▁conclusion	-9330
▁unused	-9331
disable	-9332
▁startpos	-9333
▁ctor	-9334
▁ibond	-9335
workers	-9336
▁looking	-9337
▁interpret	-9338
▁asnos	-9339
▁formats	-9340
messaging	-9341
▁getrawtype	-9342
eff	-9343
jms	-9344
serial	-9345
▁datainputstream	-9346
▁80	-9347
typed	-9348
▁ratio	-9349
invoice	-9350
▁grouping	-9351
▁terminated	-9352
▁authenticator	-9353
94	-9354
mv	-9355
ctree	-9356
stone	-9357
▁executec	-9358
▁arraytype	-9359
utc	-9360
▁quad	-9361
▁alter	-9362
recover	-9363
▁unless	-9364
orderby	-9365
▁little	-9366
▁corpus	-9367
elationship	-9368
▁iq	-9369
▁mob	-9370
/%	-9371
lements	-9372
▁createtemp	-9373
▁deserialization	-9374
emer	-9375
▁cpu	-9376
examples	-9377
fy	-9378
audio	-9379
▁retries	-9380
▁downstream	-9381
fed	-9382
▁)?	-9383
▁grayf	-9384
gn	-9385
cls	-9386
jas	-9387
▁setpre	-9388
▁generates	-9389
maker	-9390
argeth	-9391
▁handles	-9392
▁varchar	-9393
▁getstack	-9394
_0_0	-9395
▁getformat	-9396
▁casttoreference	-9397
may	-9398
▁casc	-9399
▁rulex	-9400
▁serversocket	-9401
hape	-9402
▁alternate	-9403
gp	-9404
ainter	-9405
▁joptionpane	-9406
▁sl	-9407
quet	-9408
adaptor	-9409
▁excludes	-9410
deprecated	-9411
▁servicetype	-9412
near	-9413
objectid	-9414
▁getcach	-9415
quivalent	-9416
variabled	-9417
▁setinput	-9418
▁tools	-9419
▁getinfo	-9420
▁changeset	-9421
▁nextevent	-9422
▁zoneddatetime	-9423
▁**	-9424
failures	-9425
▁accessible	-9426
▁stringreader	-9427
▁properly	-9428
▁xsp	-9429
maven	-9430
notation	-9431
▁prompt	-9432
▁createn	-9433
cho	-9434
eclipse	-9435
generics	-9436
classtype	-9437
▁updateresources	-9438
objectproperty	-9439
unset	-9440
▁getsignature	-9441
▁certific	-9442
▁transactions	-9443
▁createelement	-9444
ofor	-9445
combin	-9446
uzz	-9447
▁23	-9448
▁fq	-9449
▁preced	-9450
▁concurren	-9451
▁tup	-9452
eshort	-9453
detector	-9454
▁fm	-9455
startof	-9456
▁commercetax	-9457
▁hyper	-9458
▁visual	-9459
28	-9460
▁nanos	-9461
▁substit	-9462
▁generics	-9463
ecollection	-9464
▁bd	-9465
▁neighbor	-9466
▁publication	-9467
▁clic	-9468
ression	-9469
tst	-9470
▁asser	-9471
▁endof	-9472
sequencenumber	-9473
▁astnode	-9474
startindex	-9475
ager	-9476
▁ejs	-9477
sthan	-9478
throws	-9479
loutput	-9480
▁quantity	-9481
une	-9482
writelock	-9483
▁namevaluepair	-9484
counters	-9485
▁getfont	-9486
▁isselected	-9487
lide	-9488
same	-9489
▁mol	-9490
lexer	-9491
▁fixme	-9492
▁watcher	-9493
▁entitymetadata	-9494
▁executors	-9495
▁nr	-9496
▁syslog	-9497
ategorical	-9498
▁scrol	-9499
▁tourl	-9500
foreground	-9501
▁revo	-9502
▁receiv	-9503
▁replac	-9504
parametertypes	-9505
composit	-9506
▁modeltype	-9507
▁bifunction	-9508
▁processors	-9509
▁socketaddress	-9510
entityid	-9511
explicit	-9512
▁setbody	-9513
configure	-9514
measurespec	-9515
▁movi	-9516
▁pause	-9517
▁completable	-9518
▁mq	-9519
secs	-9520
▁ant	-9521
pection	-9522
▁setnext	-9523
▁eget	-9524
callbacks	-9525
▁resulttype	-9526
▁encountered	-9527
▁dri	-9528
unsafe	-9529
commerc	-9530
toolbar	-9531
▁circle	-9532
percentage	-9533
scenar	-9534
▁getnodevalue	-9535
▁computeifabsent	-9536
▁lif	-9537
waiting	-9538
▁accountname	-9539
reet	-9540
▁failures	-9541
listing	-9542
▁getdevice	-9543
▁beand	-9544
pageasync	-9545
serialize	-9546
primitivename	-9547
ja	-9548
如果	-9549
▁hl	-9550
▁hbase	-9551
▁recomm	-9552
▁inherited	-9553
fram	-9554
verb	-9555
▁stm	-9556
▁tls	-9557
▁highest	-9558
enamespace	-9559
gine	-9560
ecomm	-9561
advance	-9562
▁gettags	-9563
_52	-9564
modeldao	-9565
▁exiting	-9566
▁methodtype	-9567
▁intermediate	-9568
▁integration	-9569
theme	-9570
▁warnings	-9571
▁correlationid	-9572
54	-9573
cb	-9574
localhost	-9575
▁exclusive	-9576
"")	-9577
sdl	-9578
▁sensor	-9579
erow	-9580
geom	-9581
smap	-9582
▁inbound	-9583
▁ontology	-9584
▁rootpath	-9585
▁createresource	-9586
mal	-9587
▁hel	-9588
plate	-9589
▁=>	-9590
▁ras	-9591
repeat	-9592
entitytype	-9593
▁production	-9594
acces	-9595
▁kafka	-9596
allocator	-9597
▁floatvalue	-9598
ytree	-9599
▁getcreated	-9600
▁oncomplete	-9601
sin	-9602
▁oracle	-9603
retrieve	-9604
▁throwing	-9605
.1	-9606
▁0,	-9607
presenter	-9608
requestbuilder	-9609
▁getdisplayname	-9610
rl	-9611
▁mount	-9612
keypair	-9613
cregistry	-9614
gue	-9615
ransfer	-9616
▁getfullname	-9617
ilon	-9618
viation	-9619
▁overridden	-9620
▁setlocation	-9621
▁game	-9622
▁mismatch	-9623
candidates	-9624
pom	-9625
▁imageview	-9626
▁metamodel	-9627
▁ends	-9628
▁replay	-9629
▁jv	-9630
▁nls	-9631
▁executelist	-9632
▁getnodetype	-9633
cacheentry	-9634
configurer	-9635
▁deserializer	-9636
wo	-9637
rins	-9638
rowse	-9639
▁setn	-9640
valence	-9641
▁getasync	-9642
▁createinstance	-9643
000000	-9644
▁getlink	-9645
compilation	-9646
▁bag	-9647
oname	-9648
▁eventname	-9649
▁afp	-9650
▁stripe	-9651
▁getstringvalue	-9652
escript	-9653
maximum	-9654
▁uribuilder	-9655
kin	-9656
alarm	-9657
observable	-9658
compatibility	-9659
colors	-9660
▁speed	-9661
▁corner	-9662
▁commercecountry	-9663
enodes	-9664
▁third	-9665
stopped	-9666
▁belong	-9667
▁drawer	-9668
▁isdone	-9669
prefixes	-9670
▁xstream	-9671
▁datasize	-9672
emessagesize	-9673
▁asynccallback	-9674
▁geop	-9675
▁iface	-9676
monitoring	-9677
itype	-9678
awar	-9679
▁getorigin	-9680
oktst	-9681
▁getis	-9682
httpinfo	-9683
▁maxvalue	-9684
▁featoktst	-9685
▁throwfeat	-9686
.\	-9687
through	-9688
▁copyfrom	-9689
▁responsetype	-9690
▁servletresponse	-9691
appro	-9692
yes	-9693
emin	-9694
▁cprule	-9695
▁typeref	-9696
▁writebytes	-9697
fd	-9698
runs	-9699
oment	-9700
▁modeld	-9701
▁eventlistener	-9702
erule	-9703
sand	-9704
enumbers	-9705
▁separate	-9706
▁stringbundler	-9707
measurement	-9708
cfg	-9709
blue	-9710
tein	-9711
▁ensu	-9712
▁upstream	-9713
▁onclicklistener	-9714
].	-9715
▁readutf	-9716
▁indicator	-9717
soft	-9718
▁three	-9719
▁queued	-9720
builders	-9721
▁committed	-9722
▁localtime	-9723
▁getbucket	-9724
▁simplename	-9725
cern	-9726
▁getrest	-9727
▁uriinfo	-9728
▁headername	-9729
▁mixin	-9730
▁levels	-9731
▁nv	-9732
quires	-9733
▁jstype	-9734
▁produce	-9735
lastmodified	-9736
▁getchildcount	-9737
foo	-9738
git	-9739
▁tran	-9740
groupresult	-9741
dead	-9742
nodeid	-9743
▁hints	-9744
▁getcap	-9745
statuses	-9746
▁station	-9747
▁privileg	-9748
individual	-9749
▁putstring	-9750
▁hom	-9751
▁wher	-9752
director	-9753
ctemplate	-9754
gth	-9755
▁reflectionutils	-9756
='""	-9757
▁decimalformat	-9758
▁lit	-9759
▁trait	-9760
reflection	-9761
▁jsonvalue	-9762
orum	-9763
recorder	-9764
▁unix	-9765
▁listview	-9766
▁artifacts	-9767
▁variabled	-9768
▁restclient	-9769
anno	-9770
▁rollout	-9771
▁retrieved	-9772
intenancewindow	-9773
▁invert	-9774
treenode	-9775
concurrency	-9776
qm	-9777
room	-9778
▁appt	-9779
▁etag	-9780
cachekey	-9781
argingstation	-9782
////////////////	-9783
ynot	-9784
changer	-9785
etector	-9786
▁getlock	-9787
▁setlong	-9788
searchresult	-9789
poutputstream	-9790
20180	-9791
weightt	-9792
▁fromvalue	-9793
versionrequest	-9794
▁conditionalon	-9795
▁namingexception	-9796
dsl	-9797
utur	-9798
protocols	-9799
▁dataoutput	-9800
▁cloned	-9801
▁setstart	-9802
▁sz	-9803
mooth	-9804
isation	-9805
deprecation	-9806
orexception	-9807
pot	-9808
amet	-9809
▁chat	-9810
ytoken	-9811
lextended	-9812
velopment	-9813
lexecutor	-9814
▁21	-9815
opied	-9816
mxbean	-9817
recursive	-9818
▁gethostname	-9819
ious	-9820
▁gone	-9821
builds	-9822
▁scoped	-9823
▁componentname	-9824
rev	-9825
quoted	-9826
▁socketchannel	-9827
listed	-9828
markup	-9829
ransport	-9830
▁ctclass	-9831
▁requesturi	-9832
asks	-9833
licen	-9834
zen	-9835
make	-9836
zones	-9837
syntax	-9838
27	-9839
▁siz	-9840
▁datad	-9841
▁versionid	-9842
ito	-9843
▁avalue	-9844
▁basepath	-9845
conversation	-9846
sig	-9847
▁sun	-9848
hello	-9849
▁decorator	-9850
consistency	-9851
▁iam	-9852
scene	-9853
▁photo	-9854
▁datanode	-9855
:3:	-9856
machin	-9857
文件	-9858
expires	-9859
▁getlinenumber	-9860
▁udp	-9861
elocal	-9862
listvalue	-9863
retention	-9864
▁typedarray	-9865
▁therefore	-9866
▁getregion	-9867
4""	-9868
▁""&""	-9869
▁sizes	-9870
▁useful	-9871
▁putlong	-9872
▁deleteresource	-9873
formal	-9874
deliver	-9875
▁featur	-9876
parallel	-9877
existsexception	-9878
seg	-9879
fine	-9880
odule	-9881
▁isnew	-9882
▁totype	-9883
typeinfo	-9884
▁replacefirst	-9885
▁systemexception	-9886
▁give	-9887
▁readfrom	-9888
▁hasremaining	-9889
norm	-9890
javax	-9891
▁rh	-9892
atomic	-9893
ttable	-9894
iterate	-9895
▁getdis	-9896
▁swagger	-9897
bigdecimal	-9898
raster	-9899
infolist	-9900
pas	-9901
▁risk	-9902
bytype	-9903
optionrel	-9904
pective	-9905
▁gather	-9906
scape	-9907
ircular	-9908
accountid	-9909
▁getduration	-9910
logic	-9911
coding	-9912
getname	-9913
▁keyevent	-9914
▁numbytes	-9915
▁lf	-9916
andview	-9917
29	-9918
pacity	-9919
▁camera	-9920
combobox	-9921
anularity	-9922
assignments	-9923
▁displayname	-9924
untimeexception	-9925
▁picture	-9926
▁ignoring	-9927
internalxbase	-9928
instancesrequest	-9929
1}	-9930
▁tgt	-9931
▁resultlist	-9932
apps	-9933
▁dlp	-9934
▁locks	-9935
▁satis	-9936
▁gettim	-9937
graphics	-9938
physical	-9939
▁smaller	-9940
keywords	-9941
▁addclass	-9942
▁vertx	-9943
▁getuserid	-9944
▁0;	-9945
▁vocab	-9946
▁considered	-9947
▁labe	-9948
▁enddate	-9949
atorexception	-9950
erel	-9951
loaders	-9952
▁nodeengine	-9953
dum	-9954
ssf	-9955
gers	-9956
▁smart	-9957
▁important	-9958
ambd	-9959
▁ints	-9960
ubernet	-9961
▁acceptlanguage	-9962
▁lr	-9963
▁elist	-9964
▁joining	-9965
beforecall	-9966
▁drl	-9967
▁vfs	-9968
enation	-9969
▁getformatted	-9970
▁eol	-9971
▁pixels	-9972
▁setfont	-9973
▁setversion	-9974
ystr	-9975
▁jcomponent	-9976
▁membership	-9977
▁methodspec	-9978
▁currentindex	-9979
▁""{""	-9980
▁sortedmap	-9981
interrupted	-9982
isset	-9983
orrect	-9984
signal	-9985
propertytype	-9986
▁communication	-9987
pecial	-9988
▁astype	-9989
▁xmlextended	-9990
▁httpmethodname	-9991
▁presenter	-9992
ecur	-9993
▁radi	-9994
itation	-9995
executorservice	-9996
▁screenconstants	-9997
stree	-9998
▁setx	-9999
▁guess	-10000
▁jarentry	-10001
▁introspected	-10002
▁writeboolean	-10003
▁keypair	-10004
horizontal	-10005
▁remoteaddress	-10006
▁checker	-10007
▁performed	-10008
▁medication	-10009
▁tell	-10010
idence	-10011
▁getcolumnname	-10012
lax	-10013
▁sizeof	-10014
▁apis	-10015
indext	-10016
▁correctly	-10017
▁getcoordin	-10018
rend	-10019
▁getme	-10020
▁scaled	-10021
▁commons	-10022
▁commercewish	-10023
migration	-10024
taskid	-10025
expanded	-10026
▁beanfactory	-10027
▁typedeclaration	-10028
asters	-10029
semble	-10030
registers	-10031
▁visitinsn	-10032
▁errorhandler	-10033
▁)*	-10034
ystrix	-10035
▁getcell	-10036
▁parentid	-10037
nav	-10038
unner	-10039
▁getbit	-10040
▁getjava	-10041
▁policies	-10042
cdata	-10043
surface	-10044
▁400	-10045
▁setlabel	-10046
▁sourcetype	-10047
▁dw	-10048
▁getstat	-10049
▁javafile	-10050
▁getavailable	-10051
▁);	-10052
quared	-10053
▁dates	-10054
▁whose	-10055
itlement	-10056
overrides	-10057
atingsystem	-10058
▁getsample	-10059
jp	-10060
▁sg	-10061
finis	-10062
▁star	-10063
▁inclu	-10064
▁article	-10065
assessment	-10066
accumulator	-10067
▁stylesheet	-10068
▁ing	-10069
adapters	-10070
▁errormsg	-10071
▁outputdir	-10072
querystring	-10073
▁throwables	-10074
▁getpackagename	-10075
xj	-10076
ran	-10077
▁48	-10078
fold	-10079
laps	-10080
cross	-10081
cipher	-10082
ewindow	-10083
▁happens	-10084
▁httpget	-10085
collections	-10086
▁gettimezone	-10087
paymentmethod	-10088
▁clientconfig	-10089
▁searchresult	-10090
orary	-10091
sequent	-10092
ometries	-10093
▁truncate	-10094
columnnames	-10095
ba	-10096
▁getrandom	-10097
installation	-10098
▁ih	-10099
graphic	-10100
valueof	-10101
successful	-10102
▁setresult	-10103
pojo	-10104
▁fst	-10105
▁backing	-10106
econstants	-10107
▁indexable	-10108
abel	-10109
▁fig	-10110
__0__	-10111
permit	-10112
_53	-10113
▁proposal	-10114
▁commerceaddress	-10115
.0""	-10116
▁caption	-10117
▁interest	-10118
estore	-10119
▁wallet	-10120
▁notempty	-10121
▁getmetric	-10122
▁jsonstring	-10123
fam	-10124
pts	-10125
▁hits	-10126
ithmet	-10127
▁occurrence	-10128
▁identifiers	-10129
redis	-10130
eleted	-10131
▁typeliteral	-10132
arker	-10133
plorer	-10134
▁nodedata	-10135
anim	-10136
encylevel	-10137
▁keepstacksize	-10138
[1	-10139
rich	-10140
▁avg	-10141
▁closest	-10142
▁seticon	-10143
▁submitted	-10144
▁interaction	-10145
▁createrequest	-10146
spi	-10147
scrol	-10148
▁webhook	-10149
▁inventory	-10150
▁getnetwork	-10151
compact	-10152
▁schemat	-10153
legacy	-10154
acceptor	-10155
eresults	-10156
generates	-10157
▁typeid	-10158
calculate	-10159
▁((	-10160
once	-10161
xmlcontent	-10162
▁getwindow	-10163
dx	-10164
atile	-10165
marks	-10166
▁newlist	-10167
▁prepend	-10168
interaction	-10169
▁hc	-10170
hore	-10171
▁proj	-10172
storemove	-10173
▁stateful	-10174
▁anonymous	-10175
▁succeeded	-10176
reach	-10177
daemon	-10178
▁declaredtype	-10179
▁90	-10180
izable	-10181
opcode	-10182
▁ctr	-10183
▁png	-10184
▁migr	-10185
canvas	-10186
▁batchget	-10187
▁settable	-10188
associations	-10189
loss	-10190
▁rslt	-10191
atasource	-10192
▁mayb	-10193
▁newkey	-10194
▁vision	-10195
▁getnamespaceuri	-10196
hl	-10197
▁zz	-10198
priv	-10199
▁oct	-10200
bykey	-10201
▁pipelinename	-10202
01""	-10203
circle	-10204
▁issuer	-10205
controls	-10206
▁iterators	-10207
optionvalue	-10208
▁represents	-10209
▁tar	-10210
resid	-10211
▁rediss	-10212
▁depending	-10213
caption	-10214
▁stopping	-10215
href	-10216
▁far	-10217
ptime	-10218
▁behavi	-10219
building	-10220
▁getpost	-10221
risk	-10222
▁sketch	-10223
▁getoperator	-10224
hostexception	-10225
▁timing	-10226
propertyvalue	-10227
berty	-10228
special	-10229
▁shouldn	-10230
▁nonempty	-10231
▁setentity	-10232
▁typebuilder	-10233
▁getvariables	-10234
▁nz	-10235
▁simpli	-10236
▁paramvalue	-10237
04	-10238
▁parcel	-10239
outbound	-10240
▁placement	-10241
alter	-10242
▁atomiclong	-10243
▁asp	-10244
▁""<""	-10245
planation	-10246
▁localized	-10247
▁sequences	-10248
▁bufferindex	-10249
intel	-10250
▁reads	-10251
▁getpattern	-10252
propertyinfo	-10253
▁commandexecutor	-10254
▁ln	-10255
▁repeated	-10256
structural	-10257
▁developer	-10258
▁lowercase	-10259
upon	-10260
▁&#63	-10261
mises	-10262
▁doing	-10263
▁snap	-10264
yyyy	-10265
loads	-10266
spot	-10267
uces	-10268
essages	-10269
▁fluent	-10270
excluded	-10271
▁delim	-10272
▁availability	-10273
▁kw	-10274
▁tango	-10275
sholder	-10276
protection	-10277
▁changelog	-10278
########	-10279
ithmetic	-10280
▁facebook	-10281
▁pathname	-10282
▁gethandler	-10283
econf	-10284
▁eventbus	-10285
▁atomcontainer	-10286
bp	-10287
▁didn	-10288
▁runs	-10289
▁pubsub	-10290
▁modelandview	-10291
▁datat	-10292
fortype	-10293
alternatives	-10294
▁setend	-10295
privatekey	-10296
▁plural	-10297
▁inmemory	-10298
▁months	-10299
▁annotationvalue	-10300
ouri	-10301
▁sil	-10302
eenum	-10303
seudo	-10304
▁hsql	-10305
kernel	-10306
poration	-10307
inseconds	-10308
consistent	-10309
▁ascending	-10310
eq	-10311
▁along	-10312
▁gravity	-10313
▁entering	-10314
qlexception	-10315
around	-10316
▁rather	-10317
▁fingerprint	-10318
▁getdefaultvalue	-10319
▁lc	-10320
▁getservic	-10321
▁arrayutils	-10322
▁notifications	-10323
zi	-10324
);\	-10325
scopes	-10326
▁jclass	-10327
▁keyname	-10328
▁updating	-10329
▁limitorder	-10330
▁setcreated	-10331
>>	-10332
ora	-10333
please	-10334
▁identify	-10335
▁httpentity	-10336
▁qualifiers	-10337
fieldexception	-10338
▁eviction	-10339
▁plannode	-10340
▁astext	-10341
▁upperbound	-10342
▁slee	-10343
groovy	-10344
pecific	-10345
▁ioutil	-10346
▁getenum	-10347
iconsumer	-10348
▁getqueue	-10349
8""	-10350
▁reactive	-10351
contextfactory	-10352
字符	-10353
ongo	-10354
▁vpc	-10355
listindex	-10356
▁getstorage	-10357
adj	-10358
power	-10359
▁wave	-10360
▁infer	-10361
▁sethttp	-10362
emai	-10363
ransition	-10364
▁serviceref	-10365
▁gam	-10366
▁slave	-10367
▁voice	-10368
startup	-10369
▁viewport	-10370
▁splitt	-10371
▁getparser	-10372
resourcegroup	-10373
ettings	-10374
probability	-10375
▁hal	-10376
▁criteriabuilder	-10377
ontology	-10378
▁writeshort	-10379
▁declare	-10380
▁jsonpath	-10381
namespaces	-10382
rink	-10383
▁moveto	-10384
▁rendered	-10385
▁measurespec	-10386
wers	-10387
▁cmss	-10388
pleter	-10389
accounts	-10390
-2	-10391
▁-1	-10392
▁fo	-10393
about	-10394
▁schemas	-10395
▁newhashmap	-10396
▁getcategory	-10397
▁localaddress	-10398
返回	-10399
datab	-10400
schedul	-10401
pexecution	-10402
dns	-10403
▁udf	-10404
▁evict	-10405
▁approx	-10406
▁bigint	-10407
▁fileid	-10408
ignoring	-10409
▁rowcount	-10410
gray	-10411
▁pmml	-10412
▁embedd	-10413
izations	-10414
anagement	-10415
▁consumed	-10416
▁getlayer	-10417
▁fragments	-10418
agg	-10419
▁jndi	-10420
topics	-10421
osuclass	-10422
▁prefixes	-10423
▁29	-10424
undefined	-10425
quick	-10426
▁mape	-10427
colexception	-10428
▁arrow	-10429
▁enqueue	-10430
▁vectors	-10431
▁triangle	-10432
methodhelper	-10433
scoped	-10434
▁trees	-10435
ancestor	-10436
tlr	-10437
asm	-10438
oll	-10439
arer	-10440
aused	-10441
enotype	-10442
▁bracket	-10443
mic	-10444
▁lda	-10445
▁guice	-10446
▁delayed	-10447
▁getfloat	-10448
▁checkvalid	-10449
▁removefrom	-10450
▁readresource	-10451
pto	-10452
▁sty	-10453
andport	-10454
▁oindex	-10455
keyexception	-10456
star	-10457
▁newmap	-10458
▁activer	-10459
▁floating	-10460
▁serviceid	-10461
etransition	-10462
▁virtualnetwork	-10463
▁uim	-10464
▁spans	-10465
▁activiti	-10466
▁getproduct	-10467
▁completionstage	-10468
66	-10469
▁iri	-10470
▁mdc	-10471
ofweek	-10472
reject	-10473
▁copyto	-10474
▁subnet	-10475
singleton	-10476
gis	-10477
datat	-10478
compose	-10479
icontext	-10480
▁authz	-10481
▁hazelcast	-10482
▁getordefault	-10483
▁monomer	-10484
▁phonenumber	-10485
▁mapexception	-10486
▁injectionpoint	-10487
bi	-10488
▁news	-10489
▁swig	-10490
expire	-10491
consumed	-10492
▁dstindex	-10493
▁sharding	-10494
▁templatename	-10495
zk	-10496
braries	-10497
▁bluetooth	-10498
▁lineseparator	-10499
79	-10500
pretty	-10501
xtension	-10502
▁typeparameter	-10503
对象	-10504
▁coding	-10505
▁isstartelement	-10506
camel	-10507
▁logrecord	-10508
▁semantics	-10509
osen	-10510
phone	-10511
messaged	-10512
▁iresource	-10513
▁getcatalog	-10514
erole	-10515
xtext	-10516
▁refs	-10517
▁dbname	-10518
▁gettypes	-10519
▁evaluated	-10520
_54	-10521
stext	-10522
▁radix	-10523
▁joined	-10524
batchsize	-10525
ransformer	-10526
▁truststore	-10527
ours	-10528
fullname	-10529
policyresult	-10530
▁backpressure	-10531
▁pathvariable	-10532
▁cpdefinitionid	-10533
▁newdata	-10534
prototype	-10535
▁representing	-10536
illed	-10537
▁channelid	-10538
▁isattribute	-10539
▁qs	-10540
▁descend	-10541
▁domains	-10542
changelog	-10543
▁setparam	-10544
instrument	-10545
▁createdefault	-10546
lexpr	-10547
▁curve	-10548
▁nativ	-10549
ecounter	-10550
▁textutils	-10551
▁deactivate	-10552
▁clientmessage	-10553
▁getfieldvalue	-10554
▁declaringclass	-10555
▁lm	-10556
).""	-10557
sink	-10558
▁analyze	-10559
▁retvalue	-10560
▁delegating	-10561
▁getinterfaces	-10562
fqn	-10563
▁die	-10564
▁kies	-10565
amazon	-10566
▁internet	-10567
▁indicates	-10568
▁alternative	-10569
▁hh	-10570
▁ke	-10571
thashmap	-10572
500	-10573
ymer	-10574
deletes	-10575
assembly	-10576
cheduler	-10577
▁company	-10578
▁nearest	-10579
jaxb	-10580
▁much	-10581
▁social	-10582
rulecall	-10583
▁located	-10584
▁processengine	-10585
stime	-10586
▁toggle	-10587
▁apitrace	-10588
▁styleclass	-10589
stringliteral	-10590
air	-10591
etimer	-10592
▁taken	-10593
futures	-10594
▁consistent	-10595
ryt	-10596
toffset	-10597
▁immut	-10598
▁bigtable	-10599
▁getnodes	-10600
▁intervals	-10601
accesscontrol	-10602
▁iswhitespace	-10603
▁getdatasource	-10604
▁purge	-10605
provided	-10606
▁classdoc	-10607
▁getactiv	-10608
▁splitter	-10609
▁larger	-10610
▁newhashset	-10611
▁applicationname	-10612
emax	-10613
▁getmedi	-10614
▁irecord	-10615
▁createfrom	-10616
nc	-10617
mitives	-10618
includes	-10619
processes	-10620
game	-10621
▁istrans	-10622
▁inserted	-10623
atoms	-10624
rength	-10625
▁cmslist	-10626
▁appendto	-10627
▁getbuilder	-10628
▁typedvalue	-10629
qp	-10630
▁ck	-10631
▁emp	-10632
▁mongodb	-10633
数据	-10634
adoop	-10635
pause	-10636
▁reshape	-10637
predicates	-10638
▁setcontentview	-10639
▁ports	-10640
market	-10641
▁factories	-10642
mention	-10643
listview	-10644
▁ensuren	-10645
▁jbutton	-10646
▁frequency	-10647
alg	-10648
▁regexp	-10649
▁workers	-10650
▁formatting	-10651
▁getpriority	-10652
onom	-10653
▁applications	-10654
lost	-10655
▁natural	-10656
▁lightweightt	-10657
▁27	-10658
obtain	-10659
▁istype	-10660
▁sortby	-10661
▁createuser	-10662
cheduled	-10663
cally	-10664
ljava	-10665
▁deque	-10666
olerance	-10667
kv	-10668
▁99	-10669
▁sx	-10670
▁setpath	-10671
enumfactory	-10672
():	-10673
▁minx	-10674
ubject	-10675
▁samediff	-10676
converters	-10677
▁randomuuid	-10678
onal	-10679
▁sat	-10680
▁""@""	-10681
▁robot	-10682
sections	-10683
▁devices	-10684
▁getbegin	-10685
commandline	-10686
laction	-10687
▁dbclient	-10688
▁threadcontext	-10689
->	-10690
major	-10691
documents	-10692
▁termination	-10693
decess	-10694
▁prefer	-10695
▁grouped	-10696
▁queryutil	-10697
▁hierarchical	-10698
▁subquery	-10699
▁createstatement	-10700
▁drools	-10701
▁remember	-10702
▁ordertype	-10703
ette	-10704
▁bld	-10705
▁righ	-10706
▁deletion	-10707
▁assignments	-10708
((	-10709
lope	-10710
▁enumer	-10711
▁stdout	-10712
scrollpane	-10713
▁incorrect	-10714
▁stringhelper	-10715
▁ww	-10716
edesc	-10717
metry	-10718
▁directive	-10719
▁getcached	-10720
▁iterations	-10721
▁webservice	-10722
------------	-10723
ejb	-10724
▁cooki	-10725
▁minput	-10726
▁consumes	-10727
▁startposition	-10728
ming	-10729
▁dyn	-10730
▁oos	-10731
devic	-10732
inbound	-10733
▁setdate	-10734
▁possibly	-10735
▁violations	-10736
▁getsequence	-10737
▁nanoseconds	-10738
cg	-10739
lave	-10740
▁jas	-10741
▁sequ	-10742
directive	-10743
▁getinner	-10744
iconnection	-10745
▁translator	-10746
▁experimental	-10747
▁metricregistry	-10748
mr	-10749
▁xmp	-10750
▁presence	-10751
▁hasdefined	-10752
52	-10753
btn	-10754
wik	-10755
osome	-10756
▁thus	-10757
navigation	-10758
▁logmessage	-10759
▁urlencoder	-10760
▁maxy	-10761
▁optimize	-10762
interpreter	-10763
▁columninfo	-10764
sparse	-10765
onerror	-10766
training	-10767
▁otherlv	-10768
stemplate	-10769
▁namenode	-10770
▁servicebuilder	-10771
0}""	-10772
__1__	-10773
▁checkout	-10774
elasticsearch	-10775
shippingfixed	-10776
tact	-10777
▁shipping	-10778
▁uniqueid	-10779
▁readfully	-10780
▁entityname	-10781
▁renderinghints	-10782
▁reli	-10783
▁maint	-10784
▁ty	-10785
derr	-10786
ereser	-10787
▁toreturn	-10788
errhandler	-10789
serializers	-10790
▁dmr	-10791
crypt	-10792
▁phot	-10793
▁errmsg	-10794
▁tagged	-10795
▁ksession	-10796
▁observation	-10797
▁ho	-10798
▁obs	-10799
▁allocator	-10800
uss	-10801
▁htm	-10802
▁phrase	-10803
becopied	-10804
▁notfound	-10805
▁getresourc	-10806
becopiedandset	-10807
▁cpo	-10808
extent	-10809
regular	-10810
friendly	-10811
▁launcher	-10812
▁overrides	-10813
▁thenapply	-10814
▁probability	-10815
foli	-10816
ubar	-10817
▁hdr	-10818
▁dont	-10819
notifications	-10820
指定	-10821
erse	-10822
ecoder	-10823
▁typedesc	-10824
▁accesscontrol	-10825
gest	-10826
quir	-10827
▁acces	-10828
sending	-10829
canonical	-10830
▁minvalue	-10831
0_	-10832
▁likely	-10833
▁newchild	-10834
certificates	-10835
▁getenclosing	-10836
▁getifc	-10837
▁rewind	-10838
asegment	-10839
▁alle	-10840
▁txid	-10841
derived	-10842
▁styles	-10843
▁testclass	-10844
▁accumulate	-10845
▁ddl	-10846
▁knx	-10847
hours	-10848
▁getsort	-10849
estination	-10850
▁forbidden	-10851
small	-10852
automat	-10853
▁seturl	-10854
▁</	-10855
▁201	-10856
▁hmac	-10857
elogger	-10858
▁baseuri	-10859
▁findercache	-10860
▁getmethodname	-10861
▁instancevalue	-10862
▁du	-10863
▁jw	-10864
▁getmode	-10865
▁createtable	-10866
▁ruby	-10867
▁argtypes	-10868
oobject	-10869
▁voltdb	-10870
included	-10871
upperbound	-10872
iam	-10873
pad	-10874
▁saw	-10875
outputs	-10876
notifier	-10877
▁sorting	-10878
recipient	-10879
▁hystrix	-10880
▁einstance	-10881
dep	-10882
▁pic	-10883
▁isrunning	-10884
streamwriter	-10885
▁miny	-10886
▁objs	-10887
▁blocked	-10888
▁collected	-10889
▁recursively	-10890
finds	-10891
▁maxx	-10892
fromfile	-10893
▁getshape	-10894
etri	-10895
▁svn	-10896
nonematch	-10897
allocation	-10898
▁getdelegate	-10899
▁3.	-10900
▁?""	-10901
emove	-10902
▁selen	-10903
adin	-10904
▁shuff	-10905
backward	-10906
▁newdocument	-10907
▁resolvemodel	-10908
linear	-10909
within	-10910
dbobject	-10911
pelement	-10912
▁isendelement	-10913
▁pf	-10914
espan	-10915
▁density	-10916
▁userdata	-10917
termination	-10918
provisioning	-10919
pdf	-10920
▁rack	-10921
etasks	-10922
▁datet	-10923
restart	-10924
dy	-10925
▁getdialog	-10926
gra	-10927
▁easy	-10928
▁wsdl	-10929
fetcher	-10930
parents	-10931
baseexception	-10932
▁pexp	-10933
schemas	-10934
arraytype	-10935
▁equality	-10936
▁getbatch	-10937
substitution	-10938
▁expectedtype	-10939
ofs	-10940
yte	-10941
ritical	-10942
relations	-10943
▁authorized	-10944
▁deregister	-10945
iny	-10946
solut	-10947
▁cmdline	-10948
▁graphic	-10949
▁copybuilder	-10950
▁createobject	-10951
▁404	-10952
▁denom	-10953
▁efaps	-10954
▁gettop	-10955
keyspace	-10956
▁getargs	-10957
▁gethash	-10958
▁getmembers	-10959
▁executionentity	-10960
▁asmap	-10961
prise	-10962
ggested	-10963
▁healthcheck	-10964
▁mcontext	-10965
方法	-10966
▁ncfile	-10967
▁asyncresult	-10968
uts	-10969
irth	-10970
grouped	-10971
ameter	-10972
▁{}.""	-10973
▁express	-10974
jobresult	-10975
▁getgeometry	-10976
gui	-10977
xsd	-10978
clientid	-10979
aparser	-10980
enetwork	-10981
▁builtin	-10982
▁clusterid	-10983
▁gettransport	-10984
conc	-10985
macro	-10986
▁failover	-10987
▁createorupdate	-10988
tog	-10989
▁wm	-10990
seek	-10991
▁jetty	-10992
▁editable	-10993
inser	-10994
▁lowest	-10995
▁getpropertyname	-10996
tran	-10997
▁treat	-10998
▁merger	-10999
▁kubernet	-11000
she	-11001
guide	-11002
▁hack	-11003
stride	-11004
▁issub	-11005
▁responsewriter	-11006
rat	-11007
▁logfile	-11008
▁afpchain	-11009
▁mcurrent	-11010
▁getscript	-11011
▁symboltable	-11012
moved	-11013
▁lead	-11014
▁cclass	-11015
▁anymatch	-11016
▁getshared	-11017
▁grad	-11018
edisplay	-11019
▁converts	-11020
▁nextchar	-11021
▁databasetype	-11022
viol	-11023
uuids	-11024
zeros	-11025
▁convol	-11026
▁printh	-11027
▁affected	-11028
componenttype	-11029
elt	-11030
typ	-11031
quant	-11032
▁getday	-11033
▁ndarray	-11034
▁sections	-11035
▁setvariable	-11036
▁requestoptions	-11037
▁instrumentation	-11038
▁threadfactory	-11039
▁executes	-11040
lng	-11041
ulated	-11042
cookies	-11043
finally	-11044
▁invoking	-11045
statusrequest	-11046
▁gettextcontent	-11047
▁getactive	-11048
▁getpackag	-11049
exceptionhandler	-11050
fw	-11051
deep	-11052
▁testing	-11053
▁matchers	-11054
▁skipping	-11055
▁describec	-11056
▁persistenceunit	-11057
lad	-11058
aser	-11059
▁spi	-11060
▁setaction	-11061
factoryimpl	-11062
▁represented	-11063
primitivetype	-11064
▁getref	-11065
▁filetype	-11066
▁isdefined	-11067
▁memcached	-11068
▁lowerbound	-11069
▁hs	-11070
▁pane	-11071
▁actionbar	-11072
▁getsessionid	-11073
▁getrequesturi	-11074
▁aload	-11075
▁notifier	-11076
▁reversed	-11077
▁hasoption	-11078
▁bis	-11079
▁datum	-11080
▁occurs	-11081
▁tuples	-11082
▁capital	-11083
▁helpers	-11084
ethandler	-11085
amem	-11086
jobexecution	-11087
▁ub	-11088
modul	-11089
launcher	-11090
owl	-11091
\"",	-11092
reat	-11093
▁nil	-11094
▁perf	-11095
▁adjusted	-11096
▁getlimit	-11097
serializable	-11098
logmanager	-11099
▁establish	-11100
atransaction	-11101
▁getprincipal	-11102
expiry	-11103
iversal	-11104
▁granted	-11105
▁parentpath	-11106
usted	-11107
deletion	-11108
▁fromtype	-11109
▁jobstatus	-11110
▁methodcal	-11111
defaultvalue	-11112
47	-11113
▁nfe	-11114
ament	-11115
▁unresolved	-11116
▁mathcontext	-11117
▁iseventenabled	-11118
rity	-11119
▁indicate	-11120
▁statistic	-11121
▁startoffset	-11122
▁disassociate	-11123
etolive	-11124
specifier	-11125
▁wi	-11126
▁minim	-11127
▁volum	-11128
▁acceptor	-11129
drl	-11130
ows	-11131
▁unable	-11132
abuffer	-11133
▁moment	-11134
▁typeface	-11135
▁datapoint	-11136
▁categorical	-11137
corner	-11138
▁pathto	-11139
▁review	-11140
▁tunnel	-11141
▁geticon	-11142
▁madapter	-11143
▁weighted	-11144
▁linearlayout	-11145
▁virtualmachine	-11146
48	-11147
eron	-11148
deriv	-11149
▁itemid	-11150
▁sibling	-11151
iterations	-11152
▁insertion	-11153
econstraint	-11154
▁setproject	-11155
kb	-11156
bounded	-11157
managerexception	-11158
▁ao	-11159
queues	-11160
▁addresources	-11161
▁eventhandler	-11162
▁sessionfactory	-11163
▁eenum	-11164
▁lineno	-11165
gorithms	-11166
▁biconsumer	-11167
▁actionperformed	-11168
001	-11169
▁luc	-11170
aslist	-11171
▁setproperties	-11172
oog	-11173
outils	-11174
▁theta	-11175
▁ispublic	-11176
▁processid	-11177
▁computation	-11178
dav	-11179
uning	-11180
eleton	-11181
▁orderid	-11182
▁isstartof	-11183
▁modelbuilder	-11184
▁processbuilder	-11185
cli	-11186
▁({}	-11187
▁ion	-11188
ersey	-11189
icolon	-11190
calculator	-11191
interpolator	-11192
98	-11193
▁dtm	-11194
alist	-11195
poses	-11196
▁dash	-11197
capture	-11198
▁eventdata	-11199
▁childrenlist	-11200
▁cred	-11201
▁mmap	-11202
▁hasmor	-11203
▁quotes	-11204
▁getupdate	-11205
▁inputcolumn	-11206
rite	-11207
displayname	-11208
▁suggestion	-11209
▁classwriter	-11210
▁functionname	-11211
▁getcontroller	-11212
43	-11213
land	-11214
pref	-11215
ocale	-11216
finispan	-11217
▁mention	-11218
▁""*	-11219
ofmonth	-11220
▁assembly	-11221
stob	-11222
▁aos	-11223
datar	-11224
▁corrupt	-11225
▁indexing	-11226
▁charbuffer	-11227
routes	-11228
▁figure	-11229
shippingmethod	-11230
▁addres	-11231
▁claims	-11232
shiptype	-11233
▁indexer	-11234
▁plaintext	-11235
▁locals	-11236
▁readfile	-11237
▁inclusive	-11238
▁36	-11239
▁hm	-11240
ecover	-11241
0000000	-11242
▁attrvalue	-11243
queryresult	-11244
ales	-11245
ecall	-11246
itemap	-11247
wizard	-11248
classnames	-11249
▁ze	-11250
▁divisor	-11251
▁classcontext	-11252
▁ceil	-11253
apoints	-11254
▁stroke	-11255
formatted	-11256
ifnotnull	-11257
▁instructions	-11258
xa	-11259
jars	-11260
▁jjt	-11261
▁releas	-11262
mismatch	-11263
inx	-11264
▁bundles	-11265
▁trusted	-11266
▁followed	-11267
entially	-11268
▁snippet	-11269
▁surface	-11270
▁datagram	-11271
edirectory	-11272
▁readablebytes	-11273
sys	-11274
glob	-11275
▁tip	-11276
witch	-11277
ableresource	-11278
▁resourceset	-11279
▁uncompressed	-11280
▁eh	-11281
charge	-11282
▁detection	-11283
▁appcontext	-11284
▁dee	-11285
toint	-11286
▁deal	-11287
▁descr	-11288
errule	-11289
typeid	-11290
▁deserializ	-11291
▁isconnected	-11292
▁requesthandler	-11293
▁getorganization	-11294
iser	-11295
▁cps	-11296
▁fav	-11297
▁orels	-11298
▁online	-11299
▁irequest	-11300
autocommit	-11301
▁javatypes	-11302
ablerequest	-11303
▁orelsethrow	-11304
▁layoutinflater	-11305
cluding	-11306
iconfig	-11307
locales	-11308
alsecond	-11309
rowindex	-11310
▁getunit	-11311
▁parallelism	-11312
45	-11313
tcp	-11314
apikey	-11315
archar	-11316
▁queryfor	-11317
▁timeline	-11318
▁signer	-11319
▁deployed	-11320
optionvalu	-11321
statuscode	-11322
▁serviceloader	-11323
singlepageasync	-11324
edef	-11325
emot	-11326
quota	-11327
significant	-11328
▁ifnonematch	-11329
ereo	-11330
▁pdb	-11331
▁""|""	-11332
▁getsocket	-11333
dexpression	-11334
▁methodcall	-11335
▁btc	-11336
starts	-11337
leading	-11338
signing	-11339
▁getpag	-11340
feedback	-11341
▁compaction	-11342
vailable	-11343
▁viewname	-11344
ople	-11345
literals	-11346
▁isenddocument	-11347
▁throwexception	-11348
▁omit	-11349
resume	-11350
streamid	-11351
▁chunksize	-11352
withhttpinfo	-11353
▁jcgl	-11354
corpus	-11355
▁exceed	-11356
standing	-11357
▁invokes	-11358
exceptionally	-11359
lee	-11360
outh	-11361
▁mass	-11362
▁onto	-11363
▁setd	-11364
splits	-11365
▁getmet	-11366
▁atomicreference	-11367
plot	-11368
octet	-11369
▁sqlit	-11370
▁""\\.""	-11371
▁apptent	-11372
▁removal	-11373
▁relations	-11374
▁numberformat	-11375
stoadd	-11376
formula	-11377
▁keeper	-11378
distinct	-11379
equality	-11380
▁locales	-11381
▁putextra	-11382
▁newcapacity	-11383
▁gss	-11384
eterm	-11385
inuse	-11386
ablenode	-11387
▁eclipse	-11388
▁tooltip	-11389
▁gettimeout	-11390
_55	-11391
{0}	-11392
▁reducer	-11393
▁startactivity	-11394
arns	-11395
▁win	-11396
▁otype	-11397
▁strvalue	-11398
eventhandler	-11399
colon	-11400
▁spar	-11401
▁epsilon	-11402
vendor	-11403
inference	-11404
1)	-11405
▁audi	-11406
▁eofexception	-11407
▁parserexception	-11408
▁serverexception	-11409
▁led	-11410
▁setcolumn	-11411
transactions	-11412
hh	-11413
rar	-11414
acam	-11415
▁yield	-11416
▁getxml	-11417
stopping	-11418
▁getchar	-11419
▁fieldnode	-11420
▁sortorder	-11421
▁getrowcount	-11422
illegalargument	-11423
1/	-11424
trade	-11425
▁listof	-11426
▁maxwidth	-11427
:7	-11428
cpu	-11429
spans	-11430
databas	-11431
▁gettra	-11432
▁subscriptions	-11433
hard	-11434
paque	-11435
breaker	-11436
▁spinner	-11437
▁getmapping	-11438
▁getartifactid	-11439
urek	-11440
▁parity	-11441
▁stageexception	-11442
otify	-11443
▁lost	-11444
▁oclass	-11445
▁instream	-11446
▁taskstatus	-11447
enger	-11448
icons	-11449
▁unescape	-11450
parallelism	-11451
▁mavenproject	-11452
arra	-11453
slots	-11454
▁loss	-11455
▁money	-11456
highlight	-11457
keepalive	-11458
▁setborder	-11459
healthcheck	-11460
▁mn	-11461
▁sigma	-11462
localization	-11463
illa	-11464
▁bom	-11465
diagnostic	-11466
▁getreport	-11467
▁knowledge	-11468
pagesize	-11469
▁beantype	-11470
▁invokemethod	-11471
rg	-11472
iid	-11473
orpath	-11474
▁negate	-11475
insnnode	-11476
▁preserve	-11477
▁getpublic	-11478
▁updateuser	-11479
▁dh	-11480
▁jf	-11481
plans	-11482
eename	-11483
▁shortname	-11484
edescription	-11485
beand	-11486
▁supply	-11487
serialized	-11488
stringsize	-11489
profilerequest	-11490
parenth	-11491
▁addview	-11492
▁ae	-11493
such	-11494
▁weld	-11495
▁xtext	-11496
▁getwrit	-11497
actionbar	-11498
pensation	-11499
▁getrevision	-11500
▁precondition	-11501
▁fx	-11502
▁lot	-11503
▁thro	-11504
locals	-11505
▁drain	-11506
▁spect	-11507
acceler	-11508
indexer	-11509
▁recent	-11510
changeset	-11511
rectangle	-11512
▁workbook	-11513
▁soapmodel	-11514
?,	-11515
txn	-11516
▁setto	-11517
vserver	-11518
loptions	-11519
▁outfile	-11520
▁tele	-11521
▁early	-11522
▁rebuild	-11523
usion	-11524
▁jgen	-11525
▁nodeutil	-11526
▁timeseries	-11527
▁cacheconfig	-11528
▁fb	-11529
pline	-11530
▁four	-11531
▁fname	-11532
poptions	-11533
▁separated	-11534
▁subsequent	-11535
_005	-11536
itrus	-11537
buttons	-11538
▁getbind	-11539
▁mozuurl	-11540
calar	-11541
marked	-11542
variants	-11543
▁jvmtype	-11544
▁elcontext	-11545
▁resolvedtype	-11546
tls	-11547
yaml	-11548
etailed	-11549
▁netcdf	-11550
edicated	-11551
exporter	-11552
filesize	-11553
nodename	-11554
▁remoting	-11555
▁ideobject	-11556
milliseconds	-11557
ams	-11558
cws	-11559
blocksize	-11560
prediction	-11561
▁languages	-11562
▁dsl	-11563
▁jqm	-11564
ributor	-11565
▁topics	-11566
etimestamp	-11567
▁ois	-11568
bitset	-11569
▁integ	-11570
▁addfilter	-11571
usersegmentrel	-11572
▁visitvar	-11573
two	-11574
datum	-11575
▁flex	-11576
▁grou	-11577
customer	-11578
venience	-11579
agreement	-11580
▁getrange	-11581
▁getdefinition	-11582
ecod	-11583
lapse	-11584
multivalue	-11585
▁converters	-11586
▁opensession	-11587
▁responsebuilder	-11588
vlet	-11589
regexp	-11590
stab	-11591
▁wra	-11592
curacy	-11593
vpcendpoint	-11594
]+	-11595
▁crs	-11596
▁pen	-11597
lider	-11598
appear	-11599
recent	-11600
▁exitcode	-11601
determines	-11602
▁parsefloat	-11603
▁jaxbcontext	-11604
channelrequest	-11605
▁executerequest	-11606
▁synchronization	-11607
beanname	-11608
▁relevant	-11609
▁millisecond	-11610
▁emo	-11611
decod	-11612
ampling	-11613
average	-11614
▁jndiname	-11615
associated	-11616
▁dv	-11617
etary	-11618
recyclerview	-11619
commerceorder	-11620
▁chargingstation	-11621
▁certain	-11622
▁chararray	-11623
missingbean	-11624
▁parseutils	-11625
requirements	-11626
▁propertypath	-11627
▁hasmoretokens	-11628
etop	-11629
▁years	-11630
▁waiter	-11631
currentt	-11632
expansion	-11633
▁filtering	-11634
▁methodkey	-11635
▁bg	-11636
curr	-11637
sphere	-11638
▁sound	-11639
▁annotationnode	-11640
allest	-11641
▁getprofile	-11642
errorhandler	-11643
▁propagation	-11644
▁safevarargs	-11645
▁getoptionvalue	-11646
▁caseinsensitive	-11647
▁itext	-11648
▁{0}""	-11649
▁finding	-11650
▁molecule	-11651
▁valuelist	-11652
▁classutils	-11653
▁getprimary	-11654
▁columnlabel	-11655
▁sourceclass	-11656
bank	-11657
unix	-11658
shards	-11659
▁arbit	-11660
olt	-11661
▁ticker	-11662
properti	-11663
pers	-11664
charat	-11665
parity	-11666
entical	-11667
reverse	-11668
▁regions	-11669
▁computer	-11670
rant	-11671
▁lst	-11672
queued	-11673
▁challenge	-11674
▁contextual	-11675
poolexecutor	-11676
xn	-11677
▁mapview	-11678
▁collation	-11679
▁removeattribute	-11680
▁eg	-11681
▁logerror	-11682
▁usergroup	-11683
uristic	-11684
▁je	-11685
geth	-11686
▁crash	-11687
revisions	-11688
mov	-11689
etos	-11690
izers	-11691
▁faster	-11692
▁icontext	-11693
▁au	-11694
▁\""%	-11695
issuer	-11696
enderer	-11697
▁respond	-11698
parms	-11699
ufact	-11700
extends	-11701
configfile	-11702
▁isequalto	-11703
▁unmarshaller	-11704
nr	-11705
avg	-11706
▁mul	-11707
longs	-11708
▁automl	-11709
▁though	-11710
▁getdirectory	-11711
▁buildexception	-11712
flat	-11713
▁{}:	-11714
eticket	-11715
▁topologyid	-11716
▁handleerror	-11717
itored	-11718
▁grayu	-11719
▁unified	-11720
▁getsupport	-11721
cases	-11722
listen	-11723
▁typedef	-11724
anonymous	-11725
▁visitvarinsn	-11726
cesubscription	-11727
▁mes	-11728
▁getu	-11729
▁slots	-11730
▁story	-11731
▁getjav	-11732
ourcetype	-11733
▁authoriz	-11734
▁setheight	-11735
▁storename	-11736
▁targetfile	-11737
▁35	-11738
comma	-11739
▁opened	-11740
plannode	-11741
etopology	-11742
▁listening	-11743
mtypereference	-11744
rb	-11745
dog	-11746
flo	-11747
estack	-11748
abeling	-11749
▁commontree	-11750
▁outputdirectory	-11751
lc	-11752
did	-11753
oust	-11754
▁dims	-11755
cription	-11756
▁submission	-11757
▁sety	-11758
erandom	-11759
▁assistant	-11760
▁mechanism	-11761
implemented	-11762
▁filterconfig	-11763
▁invokevirtual	-11764
-0	-11765
hn	-11766
stypes	-11767
▁operands	-11768
▁opening	-11769
adjustment	-11770
▁bytecount	-11771
▁getintent	-11772
▁who	-11773
={}""	-11774
▁draft	-11775
persister	-11776
▁readboolean	-11777
iri	-11778
▁citygml	-11779
▁geopackage	-11780
▁columncount	-11781
▁getstructure	-11782
▁excel	-11783
▁isdefault	-11784
queryparams	-11785
informations	-11786
▁criteriaquery	-11787
▁getcolumncount	-11788
igned	-11789
gy	-11790
ucle	-11791
▁human	-11792
domains	-11793
enhance	-11794
computes	-11795
▁triggers	-11796
versionuid	-11797
▁queuename	-11798
▁urlstring	-11799
▁subclasses	-11800
▁jspexception	-11801
rozen	-11802
ememory	-11803
▁queues	-11804
▁webcam	-11805
grouping	-11806
paramname	-11807
▁classuml	-11808
elementtype	-11809
▁texception	-11810
▁getservicename	-11811
($	-11812
ttl	-11813
otope	-11814
clusions	-11815
▁metrict	-11816
▁pdfname	-11817
secondary	-11818
▁dayofweek	-11819
▁httpcontext	-11820
▁unsubscribe	-11821
▁tsdb	-11822
▁notes	-11823
propertyof	-11824
subscriptions	-11825
will	-11826
strip	-11827
tactic	-11828
▁ensures	-11829
▁itemtype	-11830
▁reported	-11831
▁getsingle	-11832
typeexception	-11833
▁resourceloader	-11834
类型	-11835
▁swt	-11836
▁getstatic	-11837
▁getrootpath	-11838
eps	-11839
▁noop	-11840
▁phone	-11841
backoff	-11842
▁toobject	-11843
intersection	-11844
▁hid	-11845
pools	-11846
▁protection	-11847
▁breakpoint	-11848
ryptor	-11849
▁toadd	-11850
peering	-11851
ereserved	-11852
etransfer	-11853
erequestcontext	-11854
hom	-11855
▁0""	-11856
▁aes	-11857
▁issu	-11858
▁getadapter	-11859
▁typesystem	-11860
▁applicationid	-11861
apath	-11862
▁movie	-11863
rection	-11864
▁settag	-11865
velocity	-11866
▁synpred	-11867
intervals	-11868
▁returncode	-11869
sser	-11870
leaved	-11871
▁readdata	-11872
▁setstyle	-11873
▁-->	-11874
large	-11875
rawer	-11876
perror	-11877
webapp	-11878
emitter	-11879
uniform	-11880
▁filelist	-11881
▁logentry	-11882
queryparam	-11883
▁identified	-11884
securitymanager	-11885
▁ivalue	-11886
▁jsonobj	-11887
workplace	-11888
▁xmlreader	-11889
hood	-11890
amples	-11891
obutton	-11892
▁determined	-11893
▁optimization	-11894
▁fess	-11895
[^	-11896
etot	-11897
strok	-11898
▁clob	-11899
aslong	-11900
▁geton	-11901
aldatabase	-11902
▁mithradata	-11903
benchmarkresult	-11904
ali	-11905
ynct	-11906
▁trad	-11907
▁createor	-11908
ersettings	-11909
▁propertynames	-11910
nbsp	-11911
drawer	-11912
angular	-11913
blocked	-11914
▁ending	-11915
▁getcor	-11916
▁reports	-11917
▁toremove	-11918
▁methodhandler	-11919
▁methodvisitor	-11920
-10	-11921
▁mic	-11922
▁getresults	-11923
anneld	-11924
▁getco	-11925
clients	-11926
etracker	-11927
inactive	-11928
▁erroron	-11929
productid	-11930
ethreshold	-11931
▁comparing	-11932
▁buginstance	-11933
▁cmsproperty	-11934
junct	-11935
detect	-11936
pooled	-11937
▁isvisible	-11938
▁whencomplete	-11939
hold	-11940
▁padd	-11941
▁isenum	-11942
spackage	-11943
▁canceled	-11944
▁getencoded	-11945
▁getwrapped	-11946
newline	-11947
▁debugf	-11948
▁getoid	-11949
▁tempdir	-11950
▁fullpath	-11951
▁incremental	-11952
▁getresourcetype	-11953
▁securitymanager	-11954
72	-11955
obb	-11956
opts	-11957
▁tries	-11958
descend	-11959
▁topo	-11960
merged	-11961
perature	-11962
▁getstore	-11963
▁gettaskid	-11964
▁geterrorcode	-11965
▁cq	-11966
aint	-11967
chrom	-11968
ratch	-11969
▁beanid	-11970
recordid	-11971
▁islocal	-11972
fingerprint	-11973
▁devicename	-11974
\\.	-11975
▁slow	-11976
▁inferred	-11977
superclass	-11978
▁getdriver	-11979
documentation	-11980
▁jsonprocessing	-11981
▁bias	-11982
usable	-11983
atatype	-11984
ceruntime	-11985
coordinator	-11986
▁clientsession	-11987
_56	-11988
deque	-11989
▁goto	-11990
▁incr	-11991
folders	-11992
longitude	-11993
▁infinispan	-11994
storm	-11995
strain	-11996
▁setlocal	-11997
▁getlistener	-11998
▁getpermission	-11999
▁attrib	-12000
matchers	-12001
eserializer	-12002
▁declarations	-12003
crc	-12004
eresources	-12005
▁ensurenot	-12006
▁consistency	-12007
▁unavailable	-12008
parametertype	-12009
stoc	-12010
which	-12011
▁mesh	-12012
define	-12013
▁viewer	-12014
▁findone	-12015
▁heading	-12016
▁parquet	-12017
▁annotate	-12018
▁cpattachment	-12019
due	-12020
iliz	-12021
▁lineto	-12022
▁setfile	-12023
▁campaign	-12024
▁analyzedtoken	-12025
ambig	-12026
▁presto	-12027
ben	-12028
ove	-12029
▁published	-12030
pure	-12031
jobid	-12032
scalar	-12033
▁getkeys	-12034
▁setport	-12035
responser	-12036
▁dynamodb	-12037
▁lookahead	-12038
▁getcurrentt	-12039
▁bsondocument	-12040
▁cancellation	-12041
▁selectionkey	-12042
▁commerceruntime	-12043
enda	-12044
letext	-12045
▁resum	-12046
▁chosen	-12047
▁things	-12048
biginteger	-12049
▁percentage	-12050
▁writeendelement	-12051
▁clos	-12052
tofile	-12053
iphertext	-12054
▁operatorcall	-12055
ourl	-12056
▁les	-12057
tests	-12058
reports	-12059
▁doctype	-12060
▁getrows	-12061
▁leaving	-12062
▁sqlggraph	-12063
remov	-12064
▁seems	-12065
▁getmemory	-12066
▁unchanged	-12067
propagation	-12068
rd	-12069
▁why	-12070
▁valuemap	-12071
▁deletecomm	-12072
▁formatmessage	-12073
dexecutorservice	-12074
46	-12075
hot	-12076
incorrect	-12077
activities	-12078
▁combination	-12079
degree	-12080
▁plane	-12081
▁caused	-12082
renabled	-12083
▁regression	-12084
▁coordinator	-12085
▁getconstant	-12086
▁gh	-12087
lact	-12088
▁goal	-12089
encrypted	-12090
▁socialize	-12091
authorities	-12092
▁currentuser	-12093
▁typeparameters	-12094
swap	-12095
▁jjte	-12096
▁setmodel	-12097
:6	-12098
edg	-12099
rem	-12100
ecor	-12101
▁getflow	-12102
rac	-12103
ktop	-12104
oldem	-12105
▁anode	-12106
emapping	-12107
ingenabled	-12108
▁structured	-12109
▁trades	-12110
▁upsert	-12111
▁continu	-12112
▁announce	-12113
▁dataobject	-12114
▁completedfuture	-12115
▁180	-12116
▁querypage	-12117
▁iae	-12118
▁jjtree	-12119
reservation	-12120
clientconfig	-12121
▁classdescriptor	-12122
97	-12123
ddrm	-12124
gauge	-12125
▁embed	-12126
▁pname	-12127
▁sense	-12128
constan	-12129
vectors	-12130
▁dryrun	-12131
▁objectdata	-12132
▁comparevalues	-12133
▁createtempfile	-12134
▁gethostaddress	-12135
rep	-12136
▁ou	-12137
mech	-12138
▁ein	-12139
▁maker	-12140
covered	-12141
▁daemon	-12142
▁targeth	-12143
formaterror	-12144
▁loggingutil	-12145
是否	-12146
sip	-12147
▁""?	-12148
▁ase	-12149
etric	-12150
▁legend	-12151
▁setcell	-12152
▁todouble	-12153
childelement	-12154
lof	-12155
▁))	-12156
▁wf	-12157
stof	-12158
\"">""	-12159
▁enhanced	-12160
▁datatypes	-12161
▁setpassword	-12162
▁getstatusline	-12163
▁databasesession	-12164
▁incident	-12165
▁getchildat	-12166
▁mouseevent	-12167
resourcepath	-12168
▁getsnapshot	-12169
▁runtimefault	-12170
▁actionlistener	-12171
▁queryparameters	-12172
:1.	-12173
evi	-12174
▁bot	-12175
ptable	-12176
▁adwords	-12177
▁sequential	-12178
▁resulthandler	-12179
hir	-12180
▁impro	-12181
latency	-12182
▁multipoint	-12183
▁operationstatus	-12184
▁cbuf	-12185
▁vendor	-12186
lefttuple	-12187
▁balancer	-12188
▁redisson	-12189
▁_1	-12190
▁vp	-12191
varchar	-12192
▁tomcat	-12193
▁addargument	-12194
▁unauthorized	-12195
▁parametervalue	-12196
▁cart	-12197
atorex	-12198
▁getel	-12199
▁addkey	-12200
▁maptype	-12201
companyid	-12202
paragraph	-12203
ubscriber	-12204
▁gettenant	-12205
参数	-12206
chat	-12207
limits	-12208
▁renam	-12209
▁getcol	-12210
▁backoff	-12211
▁processes	-12212
rx	-12213
fir	-12214
▁variance	-12215
queueentry	-12216
▁getcounter	-12217
▁valueexpression	-12218
hind	-12219
reload	-12220
▁jaxrs	-12221
keyspec	-12222
▁purpose	-12223
oexception	-12224
▁visitorstate	-12225
▁age	-12226
etrie	-12227
visib	-12228
▁stamp	-12229
▁grails	-12230
ferredsize	-12231
▁isabsolute	-12232
tm	-12233
▁apps	-12234
rewrite	-12235
▁replaces	-12236
▁agreement	-12237
▁createand	-12238
▁defaultrequest	-12239
loadd	-12240
skipping	-12241
▁multiplic	-12242
▁responder	-12243
bytechannel	-12244
constructors	-12245
▁typearguments	-12246
▁cname	-12247
exponent	-12248
▁composer	-12249
▁edittext	-12250
▁<<=	-12251
▁usually	-12252
▁xaexception	-12253
▁elt	-12254
speed	-12255
▁grab	-12256
review	-12257
devices	-12258
▁polyline	-12259
▁isabstract	-12260
▁interfacename	-12261
timeoutexception	-12262
▁compilationunit	-12263
ema	-12264
▁tid	-12265
▁bonds	-12266
▁divid	-12267
ometric	-12268
viewport	-12269
encounter	-12270
handshake	-12271
qualifiers	-12272
▁getreader	-12273
▁getcontrol	-12274
▁copyofrange	-12275
▁setusername	-12276
处理	-12277
lix	-12278
etool	-12279
notes	-12280
medium	-12281
affected	-12282
▁colname	-12283
econtroller	-12284
etry	-12285
labor	-12286
metainfo	-12287
▁newpath	-12288
activated	-12289
▁arrayindex	-12290
▁bf	-12291
▁ever	-12292
▁wild	-12293
▁gettopic	-12294
▁obtained	-12295
▁kieserver	-12296
▁multicast	-12297
▁assertequals	-12298
▁setfill	-12299
▁mapentry	-12300
▁setimage	-12301
▁getgroups	-12302
▁descending	-12303
▁standardtypes	-12304
▁poo	-12305
filled	-12306
logout	-12307
keyname	-12308
▁assertt	-12309
checkstyle	-12310
▁estimated	-12311
contextimpl	-12312
▁createdate	-12313
▁datacenter	-12314
exceptionreason	-12315
relid	-12316
separ	-12317
▁mapto	-12318
iphersu	-12319
itytask	-12320
imals	-12321
emarker	-12322
▁repaint	-12323
enon	-12324
trim	-12325
▁feel	-12326
▁requesttype	-12327
▁getlastmodified	-12328
icky	-12329
inside	-12330
▁nextdouble	-12331
jni	-12332
▁mor	-12333
▁album	-12334
▁xhtml	-12335
▁setmin	-12336
▁putshort	-12337
▁requestcode	-12338
ierpriceentry	-12339
inel	-12340
scode	-12341
intros	-12342
▁cypher	-12343
▁getargument	-12344
▁127	-12345
dparameter	-12346
beanfactory	-12347
dataexception	-12348
▁continuation	-12349
▁getcontextpath	-12350
gzip	-12351
ializable	-12352
▁getreason	-12353
2,	-12354
▁hub	-12355
▁animate	-12356
▁rfuture	-12357
▁getbinary	-12358
▁isreadonly	-12359
ewh	-12360
fim	-12361
▁formal	-12362
▁mods	-12363
▁camer	-12364
▁glyph	-12365
▁newentry	-12366
referencecode	-12367
ah	-12368
▁wind	-12369
▁cumul	-12370
▁fetched	-12371
▁pentity	-12372
appendable	-12373
integration	-12374
bands	-12375
▁gpio	-12376
contro	-12377
▁bookmark	-12378
resourcerequest	-12379
▁lh	-12380
▁fla	-12381
▁getscreen	-12382
▁mcwrapper	-12383
▁suspended	-12384
correlation	-12385
▁installation	-12386
▁pem	-12387
aping	-12388
▁repl	-12389
▁setconfig	-12390
▁executionid	-12391
▁getmessages	-12392
▁indy	-12393
rinsic	-12394
doctype	-12395
checkout	-12396
▁enforce	-12397
▁datamedi	-12398
▁removechild	-12399
▁bps	-12400
▁asint	-12401
internet	-12402
▁getalias	-12403
▁classhelper	-12404
▁keeperexception	-12405
jarfile	-12406
orequal	-12407
▁locking	-12408
principals	-12409
▁construction	-12410
▁unmodifiablemap	-12411
alette	-12412
▁addnew	-12413
▁aelement	-12414
▁deleting	-12415
▁getprevious	-12416
▁getservices	-12417
jcr	-12418
scm	-12419
craw	-12420
emand	-12421
olygon	-12422
▁narrow	-12423
sqlexception	-12424
▁solve	-12425
▁getget	-12426
datalist	-12427
▁userexception	-12428
gmt	-12429
▁0)	-12430
▁cdi	-12431
▁}""	-12432
▁jjtc	-12433
▁fixture	-12434
▁largest	-12435
▁ruleset	-12436
etransformer	-12437
▁postconstruct	-12438
1$	-12439
flex	-12440
▁inspect	-12441
▁rolling	-12442
▁filesize	-12443
▁manually	-12444
▁collision	-12445
disposition	-12446
'.	-12447
▁lem	-12448
putil	-12449
▁eset	-12450
▁notif	-12451
▁getfacet	-12452
▁retention	-12453
▁getshortname	-12454
▁separatorchar	-12455
fg	-12456
autom	-12457
▁sasl	-12458
emoved	-12459
unlock	-12460
valuator	-12461
▁datetimetype	-12462
nameto	-12463
▁canal	-12464
ategies	-12465
historic	-12466
semantics	-12467
▁pageable	-12468
shar	-12469
patient	-12470
▁setindex	-12471
▁sqlstatement	-12472
▁getsubscription	-12473
▁serviceendpoint	-12474
aux	-12475
chron	-12476
trees	-12477
prompt	-12478
▁referr	-12479
▁aswidget	-12480
▁propvalue	-12481
▁standalone	-12482
etitle	-12483
escount	-12484
rsorted	-12485
sserver	-12486
▁gettemp	-12487
▁newtype	-12488
▁evidence	-12489
▁isolation	-12490
▁metaclass	-12491
▁responset	-12492
▁chronology	-12493
-12	-12494
ited	-12495
legend	-12496
shader	-12497
endation	-12498
▁weakreference	-12499
"".	-12500
_1_0_0	-12501
▁anyway	-12502
▁cssvalue	-12503
▁initcause	-12504
▁taskattempt	-12505
artz	-12506
both	-12507
▁fqn	-12508
evice	-12509
ulary	-12510
▁getset	-12511
▁slider	-12512
▁canread	-12513
▁latency	-12514
leep	-12515
resize	-12516
postfix	-12517
▁curator	-12518
▁nullness	-12519
▁dataformat	-12520
▁abbre	-12521
▁manual	-12522
portfoli	-12523
▁mistype	-12524
▁pluginid	-12525
occurrence	-12526
agroup	-12527
ialias	-12528
incoming	-12529
▁gettile	-12530
▁notation	-12531
▁timeindex	-12532
aproperties	-12533
orwhitespace	-12534
▁doautocreate	-12535
idlet	-12536
▁insn	-12537
▁filled	-12538
▁unbind	-12539
▁odistributed	-12540
▁handlerequest	-12541
[0]	-12542
amode	-12543
orphan	-12544
▁mimem	-12545
▁smooth	-12546
removing	-12547
▁stringto	-12548
▁theclass	-12549
▁nextfilter	-12550
concatenation	-12551
▁wildcardtype	-12552
acon	-12553
▁edg	-12554
undant	-12555
▁defer	-12556
▁lease	-12557
▁shortcut	-12558
▁valueclass	-12559
▁parseelement	-12560
▁settimestamp	-12561
▁expirationdate	-12562
ube	-12563
urly	-12564
keyid	-12565
recording	-12566
sequences	-12567
▁bigquery	-12568
▁typenode	-12569
▁getmaximum	-12570
▁serverconfig	-12571
ari	-12572
fox	-12573
▁mu	-12574
atter	-12575
world	-12576
▁jump	-12577
spanel	-12578
logfile	-12579
torrent	-12580
canceled	-12581
▁restricted	-12582
gindescriptor	-12583
▁queryparameter	-12584
▁implementations	-12585
▁mx	-12586
hadoop	-12587
naming	-12588
edevent	-12589
▁checkfornull	-12590
▁requirements	-12591
▁removelistener	-12592
byuuid	-12593
▁shrink	-12594
ecomplet	-12595
▁purchase	-12596
▁entryname	-12597
▁addannotation	-12598
▁distributionset	-12599
hib	-12600
plets	-12601
ifnull	-12602
▁shown	-12603
vironments	-12604
▁fieldpath	-12605
▁protocols	-12606
▁subprocess	-12607
configrequest	-12608
definitionkey	-12609
groupsrequest	-12610
▁invokestatic	-12611
▁checkpermission	-12612
▁typeinformation	-12613
▁pdu	-12614
eword	-12615
▁sccp	-12616
▁handl	-12617
▁employ	-12618
▁initiate	-12619
translator	-12620
▁son	-12621
econd	-12622
onode	-12623
▁north	-12624
etection	-12625
▁charsets	-12626
▁efapsexception	-12627
▁eb	-12628
▁sdf	-12629
▁rowid	-12630
▁filenames	-12631
▁getcalendar	-12632
▁ologmanager	-12633
▁externalcontext	-12634
txid	-12635
▁infos	-12636
dicated	-12637
▁sethost	-12638
▁multiline	-12639
▁applicable	-12640
▁indentation	-12641
oldemort	-12642
rendered	-12643
▁nextline	-12644
▁propertymap	-12645
▁invalidargument	-12646
dbl	-12647
(\""	-12648
erun	-12649
eshape	-12650
oformat	-12651
▁svalue	-12652
▁longest	-12653
▁replica	-12654
▁asboolean	-12655
▁iosession	-12656
▁pipelineid	-12657
▁configurator	-12658
▁visitmethodinsn	-12659
dtd	-12660
comes	-12661
ceiver	-12662
▁xmlstreamreader	-12663
hide	-12664
team	-12665
▁dur	-12666
▁enumtype	-12667
▁iobuffer	-12668
▁iportlet	-12669
initializes	-12670
uzzy	-12671
ursor	-12672
merger	-12673
▁isroot	-12674
▁addnode	-12675
alsecurity	-12676
successfully	-12677
▁operationname	-12678
▁road	-12679
adatal	-12680
ecimal	-12681
▁sname	-12682
storetype	-12683
formalparameter	-12684
isode	-12685
▁frag	-12686
▁citrus	-12687
executed	-12688
resourceid	-12689
▁geterrors	-12690
controlflow	-12691
▁datalabeling	-12692
▁setconnection	-12693
lir	-12694
▁56	-12695
▁np	-12696
▁ski	-12697
▁sock	-12698
▁thumbnail	-12699
▁arithmetic	-12700
▁ignorecase	-12701
eof	-12702
immediate	-12703
▁watermark	-12704
▁brid	-12705
▁roots	-12706
▁getimag	-12707
▁parseandset	-12708
transactional	-12709
▁tojsonstring	-12710
?)	-12711
vest	-12712
▁listitem	-12713
▁arrayutil	-12714
▁totalsize	-12715
juli	-12716
▁www	-12717
asint	-12718
emillis	-12719
▁getopen	-12720
▁getsite	-12721
▁concaten	-12722
warnenabled	-12723
▁decompress	-12724
lasync	-12725
unicode	-12726
▁xmlnode	-12727
▁accounts	-12728
▁circular	-12729
▁neighbors	-12730
▁productadmin	-12731
{}]	-12732
vial	-12733
▁chem	-12734
▁defines	-12735
executing	-12736
groupsresult	-12737
flu	-12738
ofday	-12739
pevent	-12740
▁averag	-12741
▁emitted	-12742
▁threadid	-12743
▁pagedlist	-12744
▁apioperation	-12745
▁workspacename	-12746
litem	-12747
ptext	-12748
timed	-12749
factors	-12750
executes	-12751
outgoing	-12752
▁migrate	-12753
▁rawdata	-12754
updatewith	-12755
▁geteffect	-12756
▁xexpression	-12757
▁300	-12758
▁tex	-12759
▁wor	-12760
▁setb	-12761
▁hello	-12762
diagram	-12763
particip	-12764
▁graphobject	-12765
wire	-12766
works	-12767
▁""',	-12768
subtype	-12769
▁smallest	-12770
population	-12771
▁nextvalue	-12772
▁getinitial	-12773
▁composition	-12774
▁collectionname	-12775
lb	-12776
clip	-12777
▁spout	-12778
quename	-12779
ned	-12780
labe	-12781
▁pts	-12782
▁trie	-12783
ifield	-12784
intellig	-12785
▁offline	-12786
▁controls	-12787
callcontext	-12788
▁getbinding	-12789
▁screenshot	-12790
▁sourcename	-12791
▁createindex	-12792
▁nonnegative	-12793
▁writerequest	-12794
▁demo	-12795
ki	-12796
▁mutex	-12797
article	-12798
▁groupt	-12799
▁packed	-12800
▁applies	-12801
▁optstring	-12802
▁paddparam	-12803
threadlocal	-12804
ock	-12805
coded	-12806
esign	-12807
▁jsdoc	-12808
▁degree	-12809
ewithout	-12810
responseinner	-12811
▁iswarnenabled	-12812
classexpression	-12813
nf	-12814
▁swigc	-12815
▁medium	-12816
modifiedsince	-12817
ev	-12818
era	-12819
ytarget	-12820
▁repositoryname	-12821
abean	-12822
▁blur	-12823
refvalue	-12824
▁getwith	-12825
▁completes	-12826
ctxt	-12827
▁slid	-12828
▁yarn	-12829
andtype	-12830
▁componentid	-12831
▁webresource	-12832
▁processengin	-12833
▁dod	-12834
prime	-12835
sonar	-12836
▁coerc	-12837
divider	-12838
polling	-12839
favailable	-12840
▁intstream	-12841
▁followsets	-12842
▁geteventtype	-12843
▁getfilesystem	-12844
▁sethttpmethod	-12845
etod	-12846
scopy	-12847
datamap	-12848
▁echange	-12849
▁recurse	-12850
▁checknot	-12851
▁feedback	-12852
▁""$""	-12853
▁...""	-12854
▁stuff	-12855
picture	-12856
▁dopost	-12857
etermine	-12858
▁authtoken	-12859
▁getbyname	-12860
▁getentries	-12861
▁getsupported	-12862
8_	-12863
▁_2	-12864
▁获取	-12865
fund	-12866
▁'\\	-12867
▁cdm	-12868
▁tolong	-12869
▁rawvalue	-12870
▁readers	-12871
▁isstring	-12872
▁outstream	-12873
▁equivalence	-12874
▁headervalue	-12875
gwt	-12876
igen	-12877
▁zoo	-12878
lings	-12879
intime	-12880
toggle	-12881
accepted	-12882
deferred	-12883
▁facelet	-12884
languages	-12885
▁suggested	-12886
▁planner	-12887
▁getpipeline	-12888
elta	-12889
▁ray	-12890
▁xxx	-12891
▁""${	-12892
▁fresh	-12893
▁selenium	-12894
columnindex	-12895
▁occurrences	-12896
cu	-12897
kab	-12898
ajax	-12899
▁tabs	-12900
▁broken	-12901
scenario	-12902
▁addtype	-12903
▁clickevent	-12904
▁httpmessage	-12905
raken	-12906
trying	-12907
bundles	-12908
▁charge	-12909
▁getflag	-12910
categoryid	-12911
▁getsingleton	-12912
▁loggerfactory	-12913
emote	-12914
docker	-12915
performs	-12916
▁digital	-12917
▁gallery	-12918
cachemanager	-12919
▁fhirformaterror	-12920
ci	-12921
▁sso	-12922
ithread	-12923
setresult	-12924
▁fileinfo	-12925
▁taskmanager	-12926
▁readexternal	-12927
optionvaluerel	-12928
▁ctrl	-12929
balanc	-12930
▁negoti	-12931
infoimpl	-12932
▁exporter	-12933
▁setlevel	-12934
instructions	-12935
intelligence	-12936
▁reflections	-12937
▁tld	-12938
▁uow	-12939
bench	-12940
sonly	-12941
▁usag	-12942
granted	-12943
shelper	-12944
▁readall	-12945
▁gethistory	-12946
▁currenttoken	-12947
rofit	-12948
ulner	-12949
forname	-12950
responsebody	-12951
malformed	-12952
▁getandset	-12953
▁asserttrue	-12954
applications	-12955
aled	-12956
▁renew	-12957
▁createre	-12958
▁getoperand	-12959
memo	-12960
radi	-12961
inder	-12962
alphabet	-12963
▁gettree	-12964
▁digester	-12965
referenced	-12966
▁nullvalue	-12967
▁synthetic	-12968
emeral	-12969
apiversion	-12970
ifexpression	-12971
▁blockbuilder	-12972
-+	-12973
4.	-12974
▁1,	-12975
▁rmi	-12976
addres	-12977
▁returnval	-12978
▁setactive	-12979
▁jobinstance	-12980
▁totallength	-12981
▁mithraobject	-12982
2)	-12983
1111	-12984
▁ace	-12985
▁aligned	-12986
selectors	-12987
▁classnames	-12988
▁setposition	-12989
▁attributeset	-12990
▁roundingmode	-12991
imen	-12992
▁cnx	-12993
okens	-12994
▁fastmath	-12995
▁contentid	-12996
far	-12997
cidr	-12998
▁setm	-12999
datare	-13000
esized	-13001
▁soapmodels	-13002
itiv	-13003
ptax	-13004
facets	-13005
▁setbase	-13006
codepoint	-13007
elly	-13008
negoti	-13009
▁toxml	-13010
▁builddata	-13011
▁getjavatype	-13012
▁transitions	-13013
_000	-13014
▁gettri	-13015
▁postag	-13016
▁pvalue	-13017
indexing	-13018
▁reaction	-13019
fficpolicy	-13020
▁optimized	-13021
▁optionally	-13022
▁instancetype	-13023
connecttimeout	-13024
aset	-13025
▁knn	-13026
onomy	-13027
suite	-13028
▁dirs	-13029
▁west	-13030
▁istag	-13031
calculates	-13032
▁getencoding	-13033
▁createsession	-13034
ranch	-13035
▁uint	-13036
tensor	-13037
▁setread	-13038
dataservice	-13039
pie	-13040
etob	-13041
freq	-13042
lief	-13043
▁rtf	-13044
ooutput	-13045
▁minmax	-13046
▁onitem	-13047
▁loadfrom	-13048
▁dayofmonth	-13049
▁therequest	-13050
▁queryoptions	-13051
▁workingmemory	-13052
▁columnmetadata	-13053
する	-13054
deps	-13055
▁vot	-13056
▁cmsdb	-13057
▁zeros	-13058
▁writec	-13059
▁newfile	-13060
▁beaninfo	-13061
▁containsall	-13062
asmap	-13063
caler	-13064
ssian	-13065
▁hasn	-13066
▁limits	-13067
petition	-13068
▁duplicates	-13069
▁currentclass	-13070
▁organizationid	-13071
▁urlclassloader	-13072
attributesresult	-13073
▁orc	-13074
▁passing	-13075
▁datasegment	-13076
jboss	-13077
stors	-13078
groupt	-13079
▁together	-13080
▁blocklength	-13081
▁localization	-13082
▁cors	-13083
▁meth	-13084
▁para	-13085
alunit	-13086
▁avatar	-13087
measurementunit	-13088
使用	-13089
ounit	-13090
▁""**	-13091
nothing	-13092
▁attack	-13093
▁setuse	-13094
▁limited	-13095
determine	-13096
▁continuous	-13097
ibly	-13098
▁prov	-13099
always	-13100
subclass	-13101
consumers	-13102
▁apiparam	-13103
▁proposition	-13104
▁getconstraint	-13105
▁operatingsystem	-13106
▁serviceinstance	-13107
▁stopt	-13108
kelement	-13109
authorizer	-13110
▁distances	-13111
▁findelement	-13112
etow	-13113
msgs	-13114
▁datan	-13115
theader	-13116
▁uploaded	-13117
▁newvalues	-13118
▁pageindex	-13119
▁tableinfo	-13120
▁multivalued	-13121
▁getstatement	-13122
▁atomicboolean	-13123
▁containername	-13124
▁geterrormessage	-13125
▁isc	-13126
▁sus	-13127
▁dimen	-13128
▁oresult	-13129
▁markdown	-13130
▁withname	-13131
▁bm	-13132
▁nx	-13133
▁ua	-13134
▁few	-13135
alent	-13136
inated	-13137
▁stale	-13138
vertexid	-13139
allocated	-13140
messageid	-13141
▁prefetch	-13142
absolutepath	-13143
▁toimmutable	-13144
▁away	-13145
▁mqtt	-13146
▁expir	-13147
▁lucene	-13148
▁testcase	-13149
▁newly	-13150
ownload	-13151
▁assets	-13152
▁isdigit	-13153
▁outline	-13154
▁rounding	-13155
▁reporting	-13156
▁setadapter	-13157
▁vv	-13158
▁isfinal	-13159
▁injected	-13160
▁addmember	-13161
▁outputpath	-13162
▁querycontext	-13163
oral	-13164
▁bolt	-13165
inverse	-13166
quirement	-13167
▁composed	-13168
lowerbound	-13169
▁rootelement	-13170
weak	-13171
▁autoc	-13172
▁diagram	-13173
▁reduced	-13174
▁getfiles	-13175
▁maintain	-13176
▁getplatform	-13177
▁propertyinfo	-13178
▁jt	-13179
▁qry	-13180
green	-13181
pauth	-13182
▁apar	-13183
ucleot	-13184
▁guild	-13185
visited	-13186
▁eunset	-13187
etablename	-13188
▁encodeall	-13189
▁setselection	-13190
▁attributetype	-13191
7""	-13192
ands	-13193
▁jersey	-13194
▁newset	-13195
▁pageid	-13196
▁counting	-13197
▁modifications	-13198
ked	-13199
emit	-13200
grou	-13201
▁{}.	-13202
▁rolename	-13203
▁windowsize	-13204
versionsrequest	-13205
vp	-13206
efs	-13207
clicked	-13208
rowcount	-13209
▁tasktracker	-13210
▁packagemanager	-13211
设置	-13212
▁fab	-13213
▁gfx	-13214
sfrom	-13215
▁wake	-13216
▁ifcre	-13217
▁lambd	-13218
▁mview	-13219
▁postprocess	-13220
▁themedisplay	-13221
▁gb	-13222
_2_0	-13223
▁bod	-13224
javap	-13225
ateways	-13226
pobject	-13227
▁camund	-13228
▁modelelement	-13229
servletresponse	-13230
_57	-13231
etore	-13232
▁getemail	-13233
▁disconnected	-13234
▁repositories	-13235
bone	-13236
agents	-13237
atetype	-13238
offline	-13239
▁getmer	-13240
balancing	-13241
zookeeper	-13242
▁getnexttoken	-13243
▁unrecognized	-13244
#""	-13245
lectron	-13246
▁forced	-13247
▁buttons	-13248
▁displayed	-13249
▁paramutil	-13250
awr	-13251
▁(!	-13252
▁dbf	-13253
▁getman	-13254
▁guaranteed	-13255
▁significant	-13256
some	-13257
discard	-13258
▁decorated	-13259
▁voldemort	-13260
▁astfactory	-13261
▁methodhandle	-13262
parsingexception	-13263
ecre	-13264
appid	-13265
forclass	-13266
▁betaapi	-13267
▁converting	-13268
▁dataprovider	-13269
▁providerinfo	-13270
▁discriminator	-13271
▁componentclass	-13272
42	-13273
orig	-13274
ytest	-13275
▁""__	-13276
▁avail	-13277
▁futur	-13278
erminal	-13279
portion	-13280
▁instal	-13281
artifactid	-13282
▁commerceregion	-13283
oof	-13284
pic	-13285
keyset	-13286
acquire	-13287
builtin	-13288
caching	-13289
▁pathinfo	-13290
(0	-13291
etoc	-13292
▁eff	-13293
icals	-13294
▁suite	-13295
▁latlon	-13296
▁recorded	-13297
▁jaxbexception	-13298
53	-13299
▁scop	-13300
▁pseudo	-13301
▁statuses	-13302
connectgateway	-13303
identification	-13304
▁getschemaname	-13305
▁currentposition	-13306
▁getq	-13307
▁looks	-13308
▁softwar	-13309
▁arraynode	-13310
▁fireevent	-13311
▁nextindex	-13312
datad	-13313
square	-13314
fragments	-13315
responset	-13316
▁addandget	-13317
▁getmillis	-13318
recursively	-13319
▁currentfile	-13320
▁getannotated	-13321
▁initializing	-13322
▁getresponsecode	-13323
eph	-13324
▁vt	-13325
▁spa	-13326
▁cfml	-13327
▁defs	-13328
lasses	-13329
trades	-13330
ibration	-13331
▁cleaned	-13332
▁liberty	-13333
friendlyurl	-13334
▁automation	-13335
▁getmetrics	-13336
ocal	-13337
▁protein	-13338
▁rootdir	-13339
▁shuffle	-13340
▁populated	-13341
▁precedence	-13342
▁pdefinition	-13343
▁sendrequest	-13344
▁restrictions	-13345
▁rem	-13346
▁scripts	-13347
▁setscale	-13348
▁getwidget	-13349
▁checkargnotnull	-13350
photo	-13351
▁becom	-13352
computer	-13353
▁outstate	-13354
▁getcredentials	-13355
▁ocp	-13356
▁elems	-13357
fromcache	-13358
mechanism	-13359
ormalized	-13360
▁getclazz	-13361
▁requesturl	-13362
▁resultcode	-13363
consts	-13364
validity	-13365
submission	-13366
▁keyconstants	-13367
▁gar	-13368
ytask	-13369
▁cmis	-13370
▁synth	-13371
dashboard	-13372
▁getjobid	-13373
▁getunique	-13374
▁scanresult	-13375
▁setdisplay	-13376
▁currentelement	-13377
73	-13378
▁?,	-13379
ills	-13380
rary	-13381
▁cel	-13382
▁nulls	-13383
ewidget	-13384
▁getconf	-13385
▁matchresult	-13386
▁thencompose	-13387
dfa	-13388
▁1)	-13389
minor	-13390
probe	-13391
▁gene	-13392
aclient	-13393
▁isshow	-13394
failover	-13395
▁combiner	-13396
▁destroyed	-13397
vocab	-13398
▁subs	-13399
▁serverid	-13400
▁unwrapped	-13401
▁writedata	-13402
▁ry	-13403
▁cho	-13404
▁undo	-13405
antialias	-13406
itemcount	-13407
▁whitelist	-13408
▁childelement	-13409
▁atomicoperation	-13410
')	-13411
quibase	-13412
serviceimpl	-13413
▁requestheader	-13414
usic	-13415
solver	-13416
▁binar	-13417
▁become	-13418
▁typeof	-13419
edatabase	-13420
interfacename	-13421
▁binarysearch	-13422
instancesresult	-13423
▁rf	-13424
thon	-13425
doclet	-13426
online	-13427
▁cdata	-13428
▁prime	-13429
▁suitable	-13430
▁attributemap	-13431
"";	-13432
quad	-13433
▁poj	-13434
rices	-13435
▁getpos	-13436
mandatory	-13437
▁changing	-13438
▁xmloutput	-13439
▁jscrollpane	-13440
▁orid	-13441
▁arity	-13442
▁flink	-13443
▁fontsize	-13444
▁snapshots	-13445
▁getcomment	-13446
invalidation	-13447
▁appendfield	-13448
▁registertype	-13449
859	-13450
▁ml	-13451
▁jars	-13452
umeric	-13453
▁verif	-13454
rentity	-13455
alcontext	-13456
▁toboolean	-13457
nor	-13458
....	-13459
perpage	-13460
ecomment	-13461
evaluate	-13462
expecting	-13463
structured	-13464
▁promotion	-13465
▁setfilter	-13466
▁xmlwriter	-13467
字符串	-13468
▁gos	-13469
gresql	-13470
▁""%""	-13471
▁slide	-13472
reached	-13473
▁responseheaders	-13474
:9	-13475
ifs	-13476
applic	-13477
locate	-13478
▁keyarea	-13479
▁publicid	-13480
interfacetype	-13481
wr	-13482
▁lu	-13483
aver	-13484
▁cusparse	-13485
▁variants	-13486
▁portletwindow	-13487
▁requestconfig	-13488
▁360	-13489
▁ogn	-13490
▁baseline	-13491
▁hasvalue	-13492
stylesheet	-13493
distributed	-13494
partitioner	-13495
▁provisioning	-13496
backgroundcolor	-13497
▁fsm	-13498
▁bold	-13499
manent	-13500
opened	-13501
etomany	-13502
overview	-13503
▁datapro	-13504
convention	-13505
underlying	-13506
▁dependenc	-13507
▁sensitive	-13508
▁timestamps	-13509
▁progressbar	-13510
▁setduration	-13511
resourceinner	-13512
▁jdbctemplate	-13513
▁objecthelper	-13514
aged	-13515
croll	-13516
▁flash	-13517
▁causes	-13518
▁onsave	-13519
▁getyear	-13520
econsumer	-13521
summaries	-13522
configbean	-13523
▁sethandler	-13524
▁coefficient	-13525
▁generalsecurity	-13526
ecluster	-13527
semantic	-13528
▁assertnot	-13529
composition	-13530
vc	-13531
▁getop	-13532
▁getsrv	-13533
privileg	-13534
different	-13535
▁datestring	-13536
▁serviceregistry	-13537
ingu	-13538
▁castt	-13539
▁getad	-13540
▁paused	-13541
▁dofinal	-13542
▁getmeta	-13543
▁reasoner	-13544
truststore	-13545
▁automaton	-13546
autoscaling	-13547
▁currentpath	-13548
▁singletonmap	-13549
resourcebundle	-13550
orwhitespaceonly	-13551
.0.0	-13552
▁semi	-13553
201809	-13554
removal	-13555
▁getvar	-13556
▁islast	-13557
portfolio	-13558
▁copyright	-13559
▁domainname	-13560
▁replicated	-13561
synchronization	-13562
8.	-13563
▁getcall	-13564
▁monetary	-13565
inputformat	-13566
▁getportlet	-13567
▁addstylename	-13568
▁createmessage	-13569
/>""	-13570
▁crop	-13571
skipped	-13572
computed	-13573
▁primitives	-13574
▁jb	-13575
▁cour	-13576
▁sftp	-13577
denied	-13578
getting	-13579
▁eisset	-13580
advanced	-13581
▁nodekey	-13582
▁maketext	-13583
dexecution	-13584
▁uppercase	-13585
_64	-13586
siz	-13587
served	-13588
▁couchbase	-13589
cretization	-13590
▁getconverter	-13591
▁wr	-13592
caps	-13593
making	-13594
▁gamma	-13595
applied	-13596
asdouble	-13597
editable	-13598
ilestone	-13599
licenses	-13600
▁lexicon	-13601
▁findbugs	-13602
▁normally	-13603
jobsrequest	-13604
forced	-13605
plural	-13606
ordinals	-13607
bolicname	-13608
intercept	-13609
▁deepcopy	-13610
▁timestam	-13611
▁diagnostics	-13612
lop	-13613
alty	-13614
▁dra	-13615
▁jmf	-13616
▁kit	-13617
styles	-13618
explorer	-13619
▁keycode	-13620
▁measures	-13621
▁retrofit	-13622
▁datatable	-13623
▁getstarttime	-13624
▁connectionpool	-13625
pkg	-13626
puts	-13627
wards	-13628
▁succ	-13629
▁across	-13630
▁issame	-13631
▁subtree	-13632
ereceived	-13633
filefilter	-13634
▁objectclass	-13635
▁synchronous	-13636
▁getcondition	-13637
finfo	-13638
micro	-13639
▁exported	-13640
][	-13641
▁ish	-13642
▁onclose	-13643
▁setshow	-13644
▁actualtype	-13645
▁getgrammar	-13646
58	-13647
▁getarg	-13648
▁sanity	-13649
▁listing	-13650
▁readerindex	-13651
]*	-13652
▁mlast	-13653
▁setel	-13654
opengis	-13655
▁slices	-13656
▁classpk	-13657
▁lengths	-13658
▁jsonutils	-13659
▁contentspec	-13660
docid	-13661
peech	-13662
▁arri	-13663
▁fleet	-13664
▁sites	-13665
▁restor	-13666
▁addrule	-13667
▁earlier	-13668
▁getlatest	-13669
<<	-13670
▁wc	-13671
walker	-13672
▁joint	-13673
▁libor	-13674
▁deadline	-13675
▁setquery	-13676
customizer	-13677
▁sslconfig	-13678
▁entrypoint	-13679
▁inputsplit	-13680
gar	-13681
dims	-13682
ecap	-13683
sembler	-13684
▁crawler	-13685
▁depends	-13686
▁deviceid	-13687
multiplier	-13688
▁actiontype	-13689
▁supervisor	-13690
▁parsestring	-13691
pick	-13692
▁ori	-13693
▁overall	-13694
relationships	-13695
oles	-13696
eaders	-13697
▁ambig	-13698
▁tople	-13699
▁datafile	-13700
▁recorder	-13701
serviceref	-13702
▁delegates	-13703
construction	-13704
:{}	-13705
jdk	-13706
satis	-13707
hashes	-13708
▁drool	-13709
▁guide	-13710
▁mathutil	-13711
pagination	-13712
▁backwards	-13713
▁addhandler	-13714
▁facesconfig	-13715
▁getoptional	-13716
▁study	-13717
▁lifespan	-13718
▁consumers	-13719
▁transpose	-13720
▁createdocument	-13721
▁prestoexception	-13722
wa	-13723
▁如果	-13724
mesh	-13725
finex	-13726
▁spot	-13727
possib	-13728
▁bpsim	-13729
▁endpos	-13730
forwarded	-13731
▁viewtype	-13732
datastream	-13733
▁destinationtype	-13734
kaban	-13735
atedata	-13736
▁forest	-13737
compiled	-13738
▁visittype	-13739
▁delegation	-13740
nat	-13741
▁ansi	-13742
volved	-13743
▁piece	-13744
acamole	-13745
waittime	-13746
▁ifieldseq	-13747
performance	-13748
communication	-13749
tenantcontext	-13750
▁securerandom	-13751
_3_0	-13752
▁<""	-13753
▁asb	-13754
▁come	-13755
▁iser	-13756
▁thre	-13757
allocate	-13758
valueset	-13759
▁indextype	-13760
▁rulematch	-13761
withheaders	-13762
▁setexception	-13763
xc	-13764
__2	-13765
alcode	-13766
▁coerce	-13767
mapentry	-13768
▁assumes	-13769
▁httpuri	-13770
▁endobject	-13771
▁revisions	-13772
servletcontext	-13773
▁cacheexception	-13774
▁fv	-13775
walk	-13776
▁prc	-13777
saved	-13778
delayed	-13779
sheader	-13780
▁succeed	-13781
▁inactive	-13782
xifexpression	-13783
blockexpression	-13784
imp	-13785
subset	-13786
emetric	-13787
gallery	-13788
▁globals	-13789
▁findbyid	-13790
▁getmimetype	-13791
▁cpspecification	-13792
▁protocolversion	-13793
etr	-13794
▁setparameters	-13795
definitioninner	-13796
▁deletecommerce	-13797
}\	-13798
▁\\	-13799
butt	-13800
occur	-13801
tover	-13802
lasstype	-13803
▁appended	-13804
provisioned	-13805
▁childcount	-13806
▁sufficient	-13807
ool	-13808
sso	-13809
▁destdir	-13810
▁bounding	-13811
▁resolves	-13812
translated	-13813
▁shutdownnow	-13814
▁getvaluetype	-13815
▁getprimarykey	-13816
erm	-13817
▁zon	-13818
crumb	-13819
▁atla	-13820
essian	-13821
▁""\"",	-13822
▁getrun	-13823
▁making	-13824
mutations	-13825
▁setmethod	-13826
▁foreignkey	-13827
incompatible	-13828
▁getprojectid	-13829
igit	-13830
▁exam	-13831
lessthan	-13832
partment	-13833
▁currentpage	-13834
fice	-13835
lips	-13836
hyper	-13837
▁cube	-13838
getvalue	-13839
▁segmentid	-13840
▁siresource	-13841
delt	-13842
esset	-13843
lugin	-13844
camera	-13845
▁pstmt	-13846
isempty	-13847
▁adgroup	-13848
▁blockid	-13849
percentile	-13850
▁filefilter	-13851
▁deploymentid	-13852
▁executecreate	-13853
uv	-13854
perm	-13855
stom	-13856
rotate	-13857
triggers	-13858
▁getmonth	-13859
▁verifier	-13860
▁createfile	-13861
▁:"	-13862
▁wav	-13863
00000	-13864
▁osgi	-13865
atcher	-13866
▁socks	-13867
ruption	-13868
violations	-13869
▁vertexium	-13870
factorybean	-13871
resultinner	-13872
▁addservice	-13873
▁kb	-13874
ropy	-13875
eness	-13876
tomap	-13877
▁getma	-13878
imported	-13879
▁geopoint	-13880
▁componentdto	-13881
▁internalsarl	-13882
alon	-13883
▁xpp	-13884
▁fund	-13885
▁posix	-13886
behaviors	-13887
internals	-13888
sufficient	-13889
▁conversationid	-13890
▁xor	-13891
prior	-13892
triple	-13893
▁datare	-13894
▁getnon	-13895
requires	-13896
▁metatype	-13897
▁authorize	-13898
▁parcelable	-13899
▁servicetarget	-13900
pep	-13901
ecar	-13902
credit	-13903
viable	-13904
▁parms	-13905
▁facade	-13906
▁typespec	-13907
▁clearcache	-13908
▁dialogflow	-13909
▁getquerystring	-13910
▁firet	-13911
▁mining	-13912
loglevel	-13913
analytics	-13914
classnode	-13915
▁onresult	-13916
constantoperand	-13917
antlr	-13918
▁cptr	-13919
▁tiles	-13920
basename	-13921
omanager	-13922
▁unableto	-13923
▁setfeature	-13924
▁hostandport	-13925
▁relationships	-13926
_58	-13927
▁ufs	-13928
amess	-13929
lover	-13930
ography	-13931
▁shader	-13932
▁respect	-13933
▁classutil	-13934
▁getfeatures	-13935
▁streamsegment	-13936
ye	-13937
aky	-13938
bolt	-13939
▁gcs	-13940
▁twice	-13941
▁regard	-13942
▁released	-13943
aterequest	-13944
▁surrogate	-13945
▁getfragment	-13946
righ	-13947
aindex	-13948
▁inserts	-13949
▁srcfile	-13950
▁multiset	-13951
▁readshort	-13952
])	-13953
▁fk	-13954
leafnode	-13955
▁taskname	-13956
▁getruntim	-13957
▁taskcontext	-13958
▁nodeinstance	-13959
parametervalue	-13960
▁dow	-13961
attrname	-13962
▁addpost	-13963
▁typeclass	-13964
statechanged	-13965
▁descriptions	-13966
▁interpolation	-13967
]);	-13968
agen	-13969
▁jctree	-13970
▁stderr	-13971
▁getasset	-13972
▁validators	-13973
▁calculation	-13974
friendlyurlentry	-13975
];	-13976
▁""/{	-13977
▁rocks	-13978
▁strid	-13979
groupby	-13980
▁shards	-13981
▁beginindex	-13982
▁incomplete	-13983
▁metrictype	-13984
▁portleturl	-13985
▁writeexternal	-13986
▁rip	-13987
▁misc	-13988
▁msgid	-13989
▁todate	-13990
▁readbuffer	-13991
▁urldecoder	-13992
▁getvisibility	-13993
win	-13994
▁keyed	-13995
▁ttype	-13996
excludes	-13997
▁couchdb	-13998
▁divider	-13999
▁keybytes	-14000
▁notified	-14001
▁sourcemap	-14002
good	-14003
▁ice	-14004
▁cand	-14005
compli	-14006
products	-14007
▁centerx	-14008
orderitem	-14009
▁validity	-14010
▁commandargs	-14011
▁addmodifiers	-14012
rp	-14013
hoc	-14014
▁dtd	-14015
▁sse	-14016
liest	-14017
▁getbranch	-14018
uninitialized	-14019
chains	-14020
errange	-14021
▁builds	-14022
▁extrap	-14023
announce	-14024
findings	-14025
▁firestore	-14026
altexception	-14027
modifieddate	-14028
▁writenumber	-14029
▁um	-14030
▁ful	-14031
atern	-14032
obblin	-14033
▁spread	-14034
ametadata	-14035
▁debugging	-14036
▁getcenter	-14037
▁servergroup	-14038
▁adddependency	-14039
▁asynchronously	-14040
emq	-14041
efit	-14042
eclose	-14043
▁isuse	-14044
aresult	-14045
emember	-14046
▁mobile	-14047
granting	-14048
▁uniform	-14049
▁logevent	-14050
▁prefixed	-14051
ttprequest	-14052
greaterthan	-14053
▁disposable	-14054
▁convertview	-14055
▁getdrawable	-14056
▁connecttimeout	-14057
▁ensurecapacity	-14058
eas	-14059
integ	-14060
itect	-14061
▁deny	-14062
▁rollup	-14063
describe	-14064
sizeinbytes	-14065
▁getpredicate	-14066
▁ioc	-14067
▁classic	-14068
▁icommon	-14069
converted	-14070
facthandle	-14071
▁dateutils	-14072
▁invalidation	-14073
▁replacements	-14074
jndi	-14075
▁specs	-14076
mentity	-14077
orthrow	-14078
▁reactiv	-14079
▁couldnot	-14080
▁fieldlist	-14081
clientfactory	-14082
▁datetimezone	-14083
▁poi	-14084
▁trg	-14085
atrix	-14086
tolist	-14087
▁serve	-14088
▁getterm	-14089
▁openapi	-14090
▁typeutil	-14091
▁efficient	-14092
▁getpolicy	-14093
▁keyfactory	-14094
jid	-14095
▁pq	-14096
boli	-14097
have	-14098
rapp	-14099
months	-14100
uggest	-14101
▁iserror	-14102
▁letters	-14103
▁merging	-14104
sortedset	-14105
▁elementat	-14106
▁auditevent	-14107
▁datalength	-14108
▁preprocess	-14109
▁httpexception	-14110
▁referencetype	-14111
mc	-14112
▁uc	-14113
setid	-14114
▁rval	-14115
▁jmenuitem	-14116
▁attempting	-14117
▁getfailure	-14118
unrecognized	-14119
ety	-14120
beros	-14121
▁forms	-14122
estruct	-14123
▁redraw	-14124
▁drawline	-14125
decoration	-14126
▁functional	-14127
▁imm	-14128
▁mav	-14129
▁deps	-14130
acloud	-14131
elater	-14132
▁accum	-14133
▁opend	-14134
replies	-14135
rosstab	-14136
▁neither	-14137
▁getframe	-14138
apicontext	-14139
basepackage	-14140
▁explanation	-14141
▁requestpath	-14142
▁setinstance	-14143
▁whereclause	-14144
++)	-14145
▁()"	-14146
▁hashed	-14147
workitem	-14148
isolation	-14149
▁concrete	-14150
progressbar	-14151
▁questionna	-14152
acid	-14153
ssip	-14154
ubnet	-14155
ycled	-14156
▁fqcn	-14157
▁gold	-14158
ytrans	-14159
atility	-14160
accessed	-14161
▁several	-14162
▁noviable	-14163
implementor	-14164
▁discovered	-14165
statusresult	-14166
▁reactiveseq	-14167
valueexpression	-14168
shak	-14169
hosted	-14170
nexttoken	-14171
▁fielddef	-14172
▁triggered	-14173
▁kubernetes	-14174
[...]
